#ifndef TFLITEMODEL_H
#define TFLITEMODEL_H


unsigned int tfliteModel_len = 9968;
unsigned char tfliteModel[] = {
 0x1c, 0x00, 0x00, 0x00, 0x54, 0x46, 0x4c, 0x33, 0x14, 0x00, 0x20, 0x00,
  0x04, 0x00, 0x08, 0x00, 0x0c, 0x00, 0x10, 0x00, 0x14, 0x00, 0x00, 0x00,
  0x18, 0x00, 0x1c, 0x00, 0x14, 0x00, 0x00, 0x00, 0x03, 0x00, 0x00, 0x00,
  0x18, 0x00, 0x00, 0x00, 0x20, 0x00, 0x00, 0x00, 0xa4, 0x00, 0x00, 0x00,
  0x20, 0x00, 0x00, 0x00, 0x4c, 0x00, 0x00, 0x00, 0x44, 0x00, 0x00, 0x00,
  0x02, 0x00, 0x00, 0x00, 0xa0, 0x02, 0x00, 0x00, 0x40, 0x01, 0x00, 0x00,
  0x01, 0x00, 0x00, 0x00, 0xa8, 0x00, 0x00, 0x00, 0x0a, 0x00, 0x00, 0x00,
  0x98, 0x26, 0x00, 0x00, 0x94, 0x26, 0x00, 0x00, 0xc0, 0x25, 0x00, 0x00,
  0x2c, 0x25, 0x00, 0x00, 0x7c, 0x03, 0x00, 0x00, 0x08, 0x03, 0x00, 0x00,
  0x80, 0x26, 0x00, 0x00, 0x7c, 0x26, 0x00, 0x00, 0x78, 0x26, 0x00, 0x00,
  0x3c, 0x00, 0x00, 0x00, 0x00, 0x00, 0x00, 0x00, 0x01, 0x00, 0x00, 0x00,
  0x0c, 0x00, 0x00, 0x00, 0x08, 0x00, 0x0c, 0x00, 0x04, 0x00, 0x08, 0x00,
  0x08, 0x00, 0x00, 0x00, 0x08, 0x00, 0x00, 0x00, 0x09, 0x00, 0x00, 0x00,
  0x13, 0x00, 0x00, 0x00, 0x6d, 0x69, 0x6e, 0x5f, 0x72, 0x75, 0x6e, 0x74,
  0x69, 0x6d, 0x65, 0x5f, 0x76, 0x65, 0x72, 0x73, 0x69, 0x6f, 0x6e, 0x00,
  0x9e, 0xda, 0xff, 0xff, 0x04, 0x00, 0x00, 0x00, 0x10, 0x00, 0x00, 0x00,
  0x31, 0x2e, 0x31, 0x34, 0x2e, 0x30, 0x00, 0x00, 0x00, 0x00, 0x00, 0x00,
  0x00, 0x00, 0x00, 0x00, 0x0f, 0x00, 0x00, 0x00, 0x4d, 0x4c, 0x49, 0x52,
  0x20, 0x43, 0x6f, 0x6e, 0x76, 0x65, 0x72, 0x74, 0x65, 0x64, 0x2e, 0x00,
  0x00, 0x00, 0x0e, 0x00, 0x18, 0x00, 0x04, 0x00, 0x08, 0x00, 0x0c, 0x00,
  0x10, 0x00, 0x14, 0x00, 0x0e, 0x00, 0x00, 0x00, 0x14, 0x00, 0x00, 0x00,
  0x34, 0x00, 0x00, 0x00, 0x38, 0x00, 0x00, 0x00, 0x3c, 0x00, 0x00, 0x00,
  0x48, 0x00, 0x00, 0x00, 0x08, 0x00, 0x00, 0x00, 0x98, 0x25, 0x00, 0x00,
  0x28, 0x25, 0x00, 0x00, 0xa0, 0x24, 0x00, 0x00, 0x30, 0x24, 0x00, 0x00,
  0x7c, 0x02, 0x00, 0x00, 0xcc, 0x01, 0x00, 0x00, 0xf0, 0x00, 0x00, 0x00,
  0x68, 0x00, 0x00, 0x00, 0x01, 0x00, 0x00, 0x00, 0x00, 0x00, 0x00, 0x00,
  0x01, 0x00, 0x00, 0x00, 0x07, 0x00, 0x00, 0x00, 0x03, 0x00, 0x00, 0x00,
  0x54, 0x01, 0x00, 0x00, 0xa0, 0x00, 0x00, 0x00, 0x18, 0x00, 0x00, 0x00,
  0x04, 0x00, 0x00, 0x00, 0x6d, 0x61, 0x69, 0x6e, 0x00, 0x00, 0x0a, 0x00,
  0x10, 0x00, 0x04, 0x00, 0x08, 0x00, 0x0c, 0x00, 0x0a, 0x00, 0x00, 0x00,
  0x01, 0x00, 0x00, 0x00, 0x10, 0x00, 0x00, 0x00, 0x04, 0x00, 0x00, 0x00,
  0x01, 0x00, 0x00, 0x00, 0x07, 0x00, 0x00, 0x00, 0x01, 0x00, 0x00, 0x00,
  0x06, 0x00, 0x00, 0x00, 0xb0, 0xfe, 0xff, 0xff, 0x0e, 0x00, 0x00, 0x00,
  0x00, 0x00, 0x00, 0x0e, 0x01, 0x00, 0x00, 0x00, 0x00, 0xdb, 0xff, 0xff,
  0x14, 0x00, 0x00, 0x00, 0x08, 0x00, 0x00, 0x00, 0x24, 0x00, 0x00, 0x00,
  0x30, 0x00, 0x00, 0x00, 0x10, 0x00, 0x00, 0x00, 0x02, 0x00, 0x00, 0x00,
  0x01, 0x00, 0x00, 0x00, 0x01, 0x00, 0x00, 0x00, 0x02, 0x00, 0x00, 0x00,
  0xff, 0xff, 0xff, 0xff, 0x01, 0x00, 0x00, 0x00, 0x08, 0x00, 0x00, 0x00,
  0x49, 0x64, 0x65, 0x6e, 0x74, 0x69, 0x74, 0x79, 0x00, 0x00, 0x00, 0x00,
  0xc8, 0xdb, 0xff, 0xff, 0x00, 0x00, 0x0e, 0x00, 0x14, 0x00, 0x00, 0x00,
  0x08, 0x00, 0x0c, 0x00, 0x07, 0x00, 0x10, 0x00, 0x0e, 0x00, 0x00, 0x00,
  0x00, 0x00, 0x00, 0x08, 0x18, 0x00, 0x00, 0x00, 0x0c, 0x00, 0x00, 0x00,
  0x04, 0x00, 0x00, 0x00, 0x14, 0xdb, 0xff, 0xff, 0x01, 0x00, 0x00, 0x00,
  0x06, 0x00, 0x00, 0x00, 0x03, 0x00, 0x00, 0x00, 0x05, 0x00, 0x00, 0x00,
  0x04, 0x00, 0x00, 0x00, 0x01, 0x00, 0x00, 0x00, 0x84, 0xdb, 0xff, 0xff,
  0x14, 0x00, 0x00, 0x00, 0x07, 0x00, 0x00, 0x00, 0x24, 0x00, 0x00, 0x00,
  0x5c, 0x00, 0x00, 0x00, 0x10, 0x00, 0x00, 0x00, 0x02, 0x00, 0x00, 0x00,
  0x01, 0x00, 0x00, 0x00, 0x01, 0x00, 0x00, 0x00, 0x02, 0x00, 0x00, 0x00,
  0xff, 0xff, 0xff, 0xff, 0x01, 0x00, 0x00, 0x00, 0x34, 0x00, 0x00, 0x00,
  0x73, 0x65, 0x71, 0x75, 0x65, 0x6e, 0x74, 0x69, 0x61, 0x6c, 0x2f, 0x64,
  0x65, 0x6e, 0x73, 0x65, 0x5f, 0x31, 0x2f, 0x4d, 0x61, 0x74, 0x4d, 0x75,
  0x6c, 0x3b, 0x73, 0x65, 0x71, 0x75, 0x65, 0x6e, 0x74, 0x69, 0x61, 0x6c,
  0x2f, 0x64, 0x65, 0x6e, 0x73, 0x65, 0x5f, 0x31, 0x2f, 0x42, 0x69, 0x61,
  0x73, 0x41, 0x64, 0x64, 0x00, 0x00, 0x00, 0x00, 0x78, 0xdc, 0xff, 0xff,
  0x00, 0x00, 0x0e, 0x00, 0x16, 0x00, 0x00, 0x00, 0x08, 0x00, 0x0c, 0x00,
  0x07, 0x00, 0x10, 0x00, 0x0e, 0x00, 0x00, 0x00, 0x00, 0x00, 0x00, 0x08,
  0x24, 0x00, 0x00, 0x00, 0x18, 0x00, 0x00, 0x00, 0x0c, 0x00, 0x00, 0x00,
  0x00, 0x00, 0x06, 0x00, 0x08, 0x00, 0x07, 0x00, 0x06, 0x00, 0x00, 0x00,
  0x00, 0x00, 0x00, 0x01, 0x01, 0x00, 0x00, 0x00, 0x05, 0x00, 0x00, 0x00,
  0x03, 0x00, 0x00, 0x00, 0x00, 0x00, 0x00, 0x00, 0x03, 0x00, 0x00, 0x00,
  0x02, 0x00, 0x00, 0x00, 0x0c, 0x00, 0x10, 0x00, 0x0b, 0x00, 0x00, 0x00,
  0x0c, 0x00, 0x04, 0x00, 0x0c, 0x00, 0x00, 0x00, 0x09, 0x00, 0x00, 0x00,
  0x00, 0x00, 0x00, 0x09, 0x01, 0x00, 0x00, 0x00, 0x5c, 0xdc, 0xff, 0xff,
  0x14, 0x00, 0x00, 0x00, 0x06, 0x00, 0x00, 0x00, 0x24, 0x00, 0x00, 0x00,
  0x6c, 0x00, 0x00, 0x00, 0x10, 0x00, 0x00, 0x00, 0x02, 0x00, 0x00, 0x00,
  0x01, 0x00, 0x00, 0x00, 0x08, 0x00, 0x00, 0x00, 0x02, 0x00, 0x00, 0x00,
  0xff, 0xff, 0xff, 0xff, 0x08, 0x00, 0x00, 0x00, 0x46, 0x00, 0x00, 0x00,
  0x73, 0x65, 0x71, 0x75, 0x65, 0x6e, 0x74, 0x69, 0x61, 0x6c, 0x2f, 0x64,
  0x65, 0x6e, 0x73, 0x65, 0x2f, 0x4d, 0x61, 0x74, 0x4d, 0x75, 0x6c, 0x3b,
  0x73, 0x65, 0x71, 0x75, 0x65, 0x6e, 0x74, 0x69, 0x61, 0x6c, 0x2f, 0x64,
  0x65, 0x6e, 0x73, 0x65, 0x2f, 0x52, 0x65, 0x6c, 0x75, 0x3b, 0x73, 0x65,
  0x71, 0x75, 0x65, 0x6e, 0x74, 0x69, 0x61, 0x6c, 0x2f, 0x64, 0x65, 0x6e,
  0x73, 0x65, 0x2f, 0x42, 0x69, 0x61, 0x73, 0x41, 0x64, 0x64, 0x00, 0x00,
  0x84, 0xdc, 0xff, 0xff, 0x5a, 0xdd, 0xff, 0xff, 0x04, 0x00, 0x00, 0x00,
  0x20, 0x00, 0x00, 0x00, 0xcf, 0xd0, 0x4b, 0x3f, 0x03, 0x84, 0xc1, 0x3e,
  0x43, 0x5c, 0xb9, 0xbe, 0x92, 0xb5, 0xff, 0xbe, 0x15, 0xc1, 0x3f, 0x3f,
  0x0a, 0xc8, 0x4f, 0xbf, 0xb5, 0x28, 0x6d, 0xbf, 0xc8, 0xac, 0x44, 0xbe,
  0x6e, 0xdd, 0xff, 0xff, 0x10, 0x00, 0x00, 0x00, 0x05, 0x00, 0x00, 0x00,
  0x14, 0x00, 0x00, 0x00, 0x30, 0x00, 0x00, 0x00, 0x02, 0x00, 0x00, 0x00,
  0x01, 0x00, 0x00, 0x00, 0x08, 0x00, 0x00, 0x00, 0x19, 0x00, 0x00, 0x00,
  0x73, 0x65, 0x71, 0x75, 0x65, 0x6e, 0x74, 0x69, 0x61, 0x6c, 0x2f, 0x64,
  0x65, 0x6e, 0x73, 0x65, 0x5f, 0x31, 0x2f, 0x4d, 0x61, 0x74, 0x4d, 0x75,
  0x6c, 0x00, 0x00, 0x00, 0xf4, 0xdc, 0xff, 0xff, 0xca, 0xdd, 0xff, 0xff,
  0x04, 0x00, 0x00, 0x00, 0x60, 0x21, 0x00, 0x00, 0x4d, 0x43, 0xa9, 0x3d,
  0xb2, 0xa4, 0x2e, 0x3d, 0x41, 0xf6, 0x43, 0xbd, 0x6b, 0x00, 0xd7, 0x3d,
  0xbf, 0x38, 0x6d, 0xbd, 0x72, 0xd4, 0x99, 0x3d, 0x42, 0xed, 0x10, 0x3e,
  0x2c, 0xcd, 0x51, 0x3e, 0x16, 0xd7, 0x89, 0xbd, 0x70, 0x80, 0x47, 0x3e,
  0x7d, 0x2c, 0x82, 0xbd, 0x9e, 0x80, 0xf2, 0x3d, 0x54, 0x1b, 0xbf, 0x3c,
  0xd2, 0x05, 0x47, 0x3e, 0x85, 0x2c, 0x7c, 0xbd, 0xb4, 0x48, 0xef, 0x3d,
  0x08, 0x29, 0xef, 0xba, 0x53, 0x23, 0x8a, 0xbc, 0xdb, 0x34, 0x03, 0x3e,
  0x93, 0xb7, 0x15, 0x3e, 0x45, 0xb2, 0xe9, 0xbd, 0x47, 0x0d, 0x33, 0x3d,
  0xab, 0xf6, 0x34, 0x3d, 0x1a, 0xd8, 0x03, 0xbd, 0x89, 0xad, 0xd7, 0x3d,
  0x58, 0xe2, 0xa1, 0x3d, 0x37, 0x83, 0x9e, 0x3c, 0x20, 0xbf, 0x0b, 0x3e,
  0x75, 0x3c, 0x95, 0x3d, 0x2e, 0x8b, 0x27, 0xbe, 0x47, 0xe0, 0x42, 0x3a,
  0x84, 0x9e, 0xab, 0x3d, 0x33, 0x04, 0x8b, 0x3d, 0xf6, 0x15, 0xe0, 0x3c,
  0xad, 0x4b, 0xc8, 0x3d, 0x9c, 0x40, 0x42, 0xbd, 0xac, 0x65, 0xc1, 0xbd,
  0x7b, 0xb4, 0xa8, 0xbc, 0xc0, 0x68, 0x28, 0xbe, 0x91, 0x1a, 0x65, 0xbd,
  0x36, 0xc2, 0x22, 0xbd, 0x4d, 0xf6, 0x1c, 0xbe, 0xf9, 0xf8, 0xaa, 0x3d,
  0x80, 0x9e, 0x5e, 0xbd, 0x11, 0x29, 0xaa, 0x3d, 0x3d, 0xb5, 0x5b, 0xbd,
  0x47, 0x44, 0xab, 0x3d, 0xe5, 0x24, 0xfb, 0xbc, 0x81, 0x38, 0x47, 0xbe,
  0xa6, 0xaf, 0xa7, 0x3d, 0xe4, 0x07, 0xbb, 0xbd, 0xc5, 0xb5, 0xaf, 0x3d,
  0x03, 0x12, 0xb3, 0xbd, 0xcd, 0x7b, 0x4a, 0xbe, 0x40, 0xc2, 0x4a, 0xbd,
  0xe6, 0x5c, 0x29, 0x3c, 0xb3, 0x73, 0x13, 0xbe, 0x06, 0xa9, 0x2a, 0x3d,
  0xbc, 0xb5, 0x05, 0xbe, 0xa4, 0x51, 0xa5, 0xbd, 0x34, 0xf4, 0x0f, 0xbe,
  0x5d, 0x9f, 0x46, 0x3d, 0xdd, 0x53, 0x39, 0xbd, 0xa6, 0x0a, 0x08, 0x3d,
  0xa0, 0xac, 0x45, 0xbe, 0xab, 0xfc, 0x13, 0xbe, 0x41, 0x44, 0x32, 0xbe,
  0x17, 0x9e, 0xd7, 0xbd, 0x6a, 0x40, 0x38, 0x3d, 0x98, 0x30, 0x86, 0xbc,
  0x01, 0xd3, 0xc0, 0x3d, 0x86, 0x18, 0xda, 0x3b, 0xde, 0x71, 0x29, 0x3d,
  0x96, 0x2a, 0xc1, 0x3d, 0xa0, 0x4e, 0x01, 0xbe, 0xe5, 0xec, 0xa6, 0xbc,
  0x68, 0xdd, 0x92, 0xbd, 0xea, 0xbc, 0x18, 0xbe, 0xa2, 0xc0, 0xb3, 0x3d,
  0xb6, 0xe2, 0xc2, 0x3d, 0xd8, 0x2a, 0xbe, 0x3d, 0xd0, 0x3a, 0xbf, 0xbb,
  0x5f, 0x79, 0xec, 0x3d, 0x16, 0x6a, 0x90, 0x3c, 0xc0, 0x13, 0x96, 0x3d,
  0xa0, 0x1f, 0x6d, 0x3d, 0x82, 0x43, 0x0a, 0xbe, 0xf8, 0x7d, 0xc2, 0xbd,
  0x79, 0xb7, 0x73, 0xbd, 0x45, 0x74, 0x32, 0x3e, 0x26, 0x3d, 0xc3, 0xbd,
  0xe1, 0xc6, 0x02, 0x3e, 0x24, 0x90, 0xd9, 0xbc, 0x03, 0x67, 0x20, 0xbd,
  0x6f, 0xbd, 0x25, 0x3e, 0x4a, 0x57, 0x67, 0xbd, 0xcf, 0x80, 0xd7, 0x3c,
  0x09, 0x8c, 0xcd, 0xbd, 0xc4, 0x2a, 0x7a, 0xbd, 0x71, 0xf1, 0x7a, 0xbd,
  0xb8, 0xbf, 0xcc, 0x3d, 0xdb, 0xd2, 0xdf, 0x3d, 0x55, 0xd0, 0x82, 0x3d,
  0x01, 0x00, 0xb8, 0xbd, 0xec, 0xb3, 0xaa, 0xbd, 0x82, 0x3a, 0xd9, 0x3d,
  0x28, 0x39, 0x7c, 0xbd, 0xf7, 0xff, 0xaa, 0x3d, 0x80, 0x26, 0x07, 0x3d,
  0x4e, 0x61, 0x88, 0x3d, 0x62, 0x51, 0x61, 0x3d, 0x67, 0x76, 0xc8, 0x3d,
  0x82, 0xe3, 0x9c, 0xbd, 0xf0, 0xc5, 0xc8, 0xbd, 0xdc, 0x9b, 0x02, 0x3e,
  0x6f, 0x5f, 0x07, 0xbe, 0xb6, 0x49, 0xa5, 0xbd, 0x0b, 0xc1, 0xc5, 0xbd,
  0x23, 0xfc, 0x82, 0x3d, 0x86, 0x3f, 0x68, 0x3d, 0xbf, 0xfb, 0x57, 0xbd,
  0x30, 0xb0, 0xfb, 0xba, 0x8d, 0xff, 0x1f, 0xbd, 0xad, 0x4f, 0xe0, 0x3d,
  0x3e, 0x0e, 0x09, 0x3b, 0x36, 0x4f, 0xc0, 0xbc, 0x4a, 0x0a, 0xa0, 0x3d,
  0x08, 0x6e, 0xde, 0x3d, 0x7d, 0xb0, 0x82, 0x3d, 0xce, 0x9b, 0x0a, 0xbb,
  0x47, 0x24, 0xc1, 0x3c, 0xd0, 0x8b, 0xe7, 0xbd, 0x26, 0x32, 0x04, 0xbe,
  0x6e, 0xd2, 0xe8, 0x3c, 0x49, 0x06, 0xd9, 0x3b, 0xd7, 0x3b, 0xa9, 0x3d,
  0x97, 0x94, 0x68, 0xbd, 0xf6, 0x20, 0x99, 0x3d, 0x69, 0x71, 0xd0, 0xbd,
  0xa9, 0x58, 0x60, 0x3d, 0xda, 0x17, 0x04, 0x3e, 0x5b, 0xc0, 0x08, 0xbe,
  0x43, 0xa4, 0x11, 0x3e, 0xdf, 0xed, 0xf5, 0x3c, 0x64, 0x92, 0xd3, 0x3d,
  0x6a, 0xb7, 0x52, 0xbd, 0x9a, 0xfe, 0x0f, 0xbd, 0xe5, 0x25, 0x14, 0xbc,
  0x47, 0x1f, 0xa3, 0xbd, 0x59, 0x07, 0xb5, 0xbd, 0x70, 0x80, 0xd9, 0x3d,
  0x72, 0x6b, 0xad, 0xbd, 0x5c, 0x73, 0x43, 0x3d, 0xf8, 0x27, 0xe5, 0xbd,
  0xb8, 0xbb, 0x01, 0x3e, 0x0b, 0xdc, 0x04, 0x3e, 0x3c, 0xcb, 0xb6, 0x3c,
  0xcf, 0xb8, 0x38, 0xbd, 0xcd, 0xc3, 0x48, 0xbd, 0xbd, 0xf8, 0x25, 0xbd,
  0xcf, 0xe7, 0x8b, 0x3c, 0xce, 0xb8, 0xfc, 0xbc, 0xc6, 0x3c, 0x18, 0x3e,
  0x9a, 0x90, 0x91, 0xbd, 0x01, 0xde, 0x08, 0x3e, 0x06, 0x6c, 0x00, 0x3d,
  0xba, 0xb0, 0xd5, 0x3d, 0x3a, 0x56, 0x6d, 0x3c, 0xfa, 0x89, 0x95, 0x3d,
  0x3f, 0xed, 0x1e, 0xbc, 0xa3, 0x0c, 0x25, 0xbd, 0x14, 0xab, 0x0a, 0xbe,
  0x0b, 0x23, 0x9c, 0x3d, 0x20, 0xe4, 0xfb, 0x3d, 0x51, 0xdf, 0x00, 0xbe,
  0x60, 0x5f, 0x2a, 0x3d, 0x9b, 0xc9, 0xd3, 0xbd, 0xb8, 0x9a, 0x93, 0xbd,
  0x23, 0x1b, 0x21, 0xbd, 0x75, 0x0b, 0x48, 0xbe, 0xba, 0x77, 0x12, 0xbe,
  0xe8, 0x5f, 0xcb, 0x3c, 0x5b, 0xba, 0xed, 0xbd, 0xea, 0xf0, 0x10, 0xbe,
  0xc4, 0x89, 0x17, 0xbe, 0x43, 0x4a, 0x8d, 0x3d, 0x26, 0xb5, 0xb8, 0xbc,
  0x62, 0xf6, 0xd8, 0xbd, 0x95, 0x09, 0xe9, 0xbd, 0x93, 0x64, 0x40, 0xbe,
  0x0c, 0x28, 0x1f, 0xbe, 0xf1, 0xfd, 0x0e, 0xbe, 0xa9, 0xb3, 0x66, 0xbb,
  0xd9, 0x78, 0x45, 0xbe, 0x06, 0xc2, 0x04, 0xbe, 0x32, 0x98, 0xa2, 0x3d,
  0x96, 0xe9, 0x8a, 0x3d, 0x2f, 0xeb, 0x31, 0xbe, 0x77, 0x6a, 0x85, 0xbd,
  0x84, 0x70, 0x8d, 0x3d, 0x84, 0x53, 0x5a, 0xbd, 0x5c, 0x28, 0x1f, 0xba,
  0x77, 0x4a, 0x0b, 0xbe, 0x15, 0x0c, 0x51, 0x3d, 0x19, 0x6e, 0x75, 0xbc,
  0x9a, 0x39, 0x6a, 0x3d, 0x38, 0x15, 0xa6, 0xbd, 0x37, 0x48, 0x9a, 0xbd,
  0xff, 0x03, 0x71, 0x3d, 0x56, 0x40, 0xce, 0x3d, 0x1b, 0xc7, 0xef, 0x3d,
  0xca, 0x8b, 0xfe, 0xbd, 0x3c, 0x97, 0x6a, 0x3d, 0x21, 0xf8, 0xfa, 0xbd,
  0xa9, 0x21, 0x0c, 0x3d, 0x91, 0xf9, 0xb2, 0x3d, 0xe6, 0x97, 0x46, 0xbd,
  0x97, 0xf7, 0xdb, 0x3d, 0x9c, 0x4a, 0x8c, 0xbd, 0xd2, 0x12, 0x1f, 0x3e,
  0x46, 0x84, 0x6e, 0x3d, 0xa2, 0xbf, 0xb6, 0xbd, 0xe7, 0x73, 0xec, 0x3d,
  0x46, 0xab, 0x47, 0xbd, 0x8e, 0x67, 0x22, 0x3e, 0xe5, 0x1a, 0x9c, 0x3d,
  0x54, 0x44, 0xae, 0x3d, 0x65, 0x24, 0x63, 0xbd, 0x87, 0xe7, 0xa3, 0x3c,
  0xa0, 0xea, 0x68, 0x3c, 0x87, 0xf6, 0x60, 0x3d, 0xc5, 0x9d, 0xf9, 0x3c,
  0xbd, 0xaa, 0x08, 0x3e, 0xc0, 0x23, 0x3c, 0x3e, 0xba, 0x8d, 0x1e, 0xbd,
  0xce, 0x44, 0xf8, 0x3d, 0x35, 0x81, 0x26, 0x3e, 0xba, 0xb5, 0x49, 0x3e,
  0xdb, 0x93, 0x44, 0xbd, 0x81, 0x1c, 0xba, 0x3d, 0xf3, 0xe5, 0x98, 0xbc,
  0xcf, 0x37, 0x4d, 0x3c, 0x0d, 0x9d, 0x86, 0x3c, 0x50, 0x48, 0x43, 0x3e,
  0x6c, 0xff, 0xbe, 0xbc, 0x1c, 0xec, 0x4f, 0x3e, 0x00, 0xa8, 0x89, 0xbd,
  0xc9, 0xbf, 0xd9, 0x3d, 0xd0, 0xa9, 0x90, 0x3d, 0x1d, 0x7b, 0x6c, 0x3d,
  0xc5, 0xa8, 0xf0, 0x3d, 0xbe, 0xbd, 0x25, 0xbd, 0x37, 0xb6, 0xfb, 0x3c,
  0x53, 0xbf, 0x93, 0x3d, 0xb4, 0xdc, 0x3d, 0xbe, 0x81, 0x09, 0xc5, 0x3d,
  0x2e, 0x0d, 0x04, 0xbe, 0xb2, 0xec, 0x17, 0x3b, 0xef, 0x8e, 0x28, 0xbe,
  0xa7, 0xfa, 0xb5, 0xbd, 0x23, 0xf8, 0x49, 0x3a, 0x0b, 0xd2, 0xad, 0xbc,
  0x48, 0xc1, 0x2a, 0xbe, 0xd8, 0x79, 0x2a, 0xbc, 0xfc, 0xfc, 0x8e, 0xbd,
  0x1b, 0xde, 0x2c, 0xbe, 0xce, 0x34, 0x92, 0x3d, 0x61, 0x50, 0x92, 0x3c,
  0x48, 0xe6, 0x29, 0x3e, 0xa7, 0x62, 0x33, 0x3e, 0xc3, 0xf0, 0x5e, 0x3c,
  0x44, 0x8f, 0x32, 0x3e, 0xec, 0xac, 0x28, 0x3e, 0xcb, 0x02, 0x55, 0xbc,
  0x40, 0x2c, 0x4c, 0xbc, 0x93, 0x52, 0x1e, 0x3d, 0xbf, 0xd6, 0x3a, 0x3c,
  0xd8, 0xb8, 0xfb, 0x3d, 0xa3, 0x65, 0xee, 0x3d, 0x4e, 0x95, 0x2a, 0xbd,
  0x4a, 0xff, 0x14, 0xbe, 0xdd, 0x0d, 0x12, 0xbe, 0x7a, 0x4f, 0x4e, 0xbd,
  0xf3, 0x20, 0x93, 0xbb, 0x33, 0xa2, 0xe9, 0xbc, 0x22, 0x1a, 0xfd, 0xbd,
  0xdf, 0x29, 0x3c, 0xbe, 0x54, 0x04, 0x19, 0xbd, 0xf9, 0xa8, 0xd1, 0xbc,
  0x00, 0xd5, 0x6e, 0xbd, 0x91, 0x36, 0x5d, 0xbd, 0x72, 0x90, 0xc2, 0xbd,
  0xd8, 0x88, 0x0f, 0xbd, 0x6b, 0xbe, 0xd2, 0xbd, 0xb5, 0xf9, 0x3d, 0xbe,
  0xad, 0x47, 0xfd, 0x3c, 0xc3, 0x24, 0xc4, 0xbd, 0xe3, 0x0d, 0xa2, 0xbd,
  0x10, 0x7d, 0xf6, 0xbd, 0x3e, 0x10, 0xcd, 0xbb, 0xcc, 0x89, 0x4e, 0x3b,
  0x3e, 0x68, 0xe3, 0xbc, 0x94, 0xe5, 0xd5, 0x3c, 0x97, 0x37, 0x1a, 0xbe,
  0x4b, 0xb2, 0x40, 0xbe, 0x72, 0xa1, 0x4e, 0xbd, 0x84, 0x60, 0xd2, 0xbd,
  0x24, 0x16, 0x0f, 0xbd, 0xa4, 0xcf, 0x51, 0xbe, 0xab, 0x40, 0x8a, 0x3c,
  0x0e, 0x65, 0x00, 0xbd, 0x5e, 0xd0, 0x21, 0x3d, 0xb5, 0xde, 0xeb, 0xbd,
  0x91, 0x66, 0xda, 0xbd, 0xdb, 0xdb, 0xfe, 0xbc, 0x94, 0xb0, 0xa8, 0x3d,
  0x91, 0xba, 0x09, 0xbe, 0x02, 0x81, 0x4a, 0xbe, 0xf8, 0xb1, 0x40, 0xbe,
  0xbf, 0xfc, 0x10, 0x3d, 0x2c, 0x1c, 0x2c, 0xbe, 0x83, 0x47, 0x83, 0xba,
  0x6c, 0x33, 0x0d, 0xbe, 0x2c, 0x05, 0x10, 0xbe, 0x00, 0xc5, 0xbe, 0x3d,
  0x6b, 0x21, 0x10, 0xbe, 0xae, 0x4a, 0x22, 0xbd, 0x30, 0xda, 0xef, 0x3d,
  0x58, 0xc4, 0x87, 0x3d, 0x5a, 0x9c, 0x64, 0x3d, 0xd3, 0x12, 0x59, 0x3c,
  0xde, 0xcc, 0xa0, 0x3b, 0x6e, 0x8a, 0x19, 0x3e, 0x0a, 0x4e, 0xa3, 0xbd,
  0x2e, 0x53, 0x1f, 0x3d, 0x40, 0x12, 0x40, 0x3e, 0x65, 0xb6, 0x44, 0x3e,
  0xc4, 0x70, 0x09, 0x3e, 0x96, 0x77, 0x04, 0x3e, 0xf8, 0x07, 0x72, 0x3d,
  0xdf, 0xec, 0x78, 0xbd, 0x1f, 0x5b, 0x26, 0x3e, 0x4f, 0x58, 0xe7, 0x3d,
  0xbc, 0xfd, 0x28, 0x3e, 0x5a, 0xbc, 0x0b, 0x3e, 0xc7, 0xa0, 0x21, 0xbd,
  0x9b, 0xc2, 0xcb, 0x3c, 0x53, 0x2b, 0xa3, 0x3c, 0x2c, 0xd3, 0x0b, 0x3d,
  0x0c, 0x63, 0x06, 0xbe, 0x71, 0x43, 0x4d, 0xbd, 0xa8, 0x84, 0x8c, 0x3d,
  0xc1, 0xea, 0xdc, 0xbd, 0xb5, 0x72, 0x61, 0x3d, 0x6c, 0xcb, 0x0c, 0xbe,
  0xe7, 0xcf, 0xfc, 0xbd, 0xf8, 0x86, 0xfe, 0x3d, 0x32, 0x24, 0x11, 0xbe,
  0x0e, 0x20, 0xcf, 0x3c, 0xf4, 0xbe, 0xa5, 0x39, 0xde, 0xe9, 0x35, 0x3d,
  0x32, 0x71, 0x8e, 0x3d, 0x94, 0x4c, 0xe9, 0x3d, 0x8b, 0x76, 0xb6, 0x3d,
  0x3a, 0xa0, 0xc6, 0x3d, 0x22, 0xd6, 0xba, 0xbc, 0xe7, 0x72, 0xa2, 0xbd,
  0x47, 0x0d, 0x35, 0x3d, 0xe6, 0xc4, 0x17, 0xbe, 0xe9, 0x80, 0x92, 0x3d,
  0xfb, 0xc4, 0x0a, 0xbe, 0x4f, 0x30, 0xae, 0xbd, 0x5a, 0x2e, 0xbf, 0x3d,
  0xe9, 0xf2, 0xec, 0xbd, 0xcc, 0xfa, 0x88, 0x3d, 0x08, 0xf0, 0xb4, 0xbd,
  0x06, 0x37, 0x00, 0xbe, 0x76, 0x5c, 0x01, 0xbe, 0x16, 0x3f, 0x40, 0x3d,
  0x99, 0x5c, 0x02, 0x3e, 0x82, 0xdd, 0x9b, 0x3c, 0x19, 0x53, 0xd1, 0x3d,
  0x94, 0x4f, 0x30, 0xbc, 0xc1, 0xc5, 0x88, 0xbb, 0x85, 0xde, 0x31, 0x3d,
  0xf3, 0xe9, 0x87, 0x3d, 0xc0, 0xbf, 0x9c, 0x3d, 0x33, 0x16, 0xae, 0x3d,
  0xc6, 0xef, 0xb1, 0xbd, 0xfc, 0xdb, 0x70, 0x3c, 0x24, 0x41, 0xd1, 0xbd,
  0x4c, 0x74, 0x93, 0x3d, 0xc7, 0x01, 0x64, 0x3d, 0x1a, 0x50, 0xe1, 0x3d,
  0x5c, 0x4c, 0xde, 0xbd, 0x5c, 0xd7, 0xfd, 0xbd, 0x5d, 0xa7, 0x92, 0xbc,
  0xdc, 0xe8, 0x8c, 0x3d, 0x21, 0xca, 0xf1, 0x3d, 0x02, 0xdb, 0x85, 0xbd,
  0xac, 0x5f, 0x59, 0xbd, 0x0c, 0x0d, 0xd7, 0xbd, 0x52, 0x11, 0x51, 0xba,
  0x66, 0x0b, 0x13, 0x3e, 0x31, 0xae, 0xd2, 0xbc, 0x70, 0x80, 0x5b, 0xbd,
  0x66, 0xb8, 0xba, 0x3d, 0xd4, 0x57, 0x0f, 0xbe, 0x56, 0x3b, 0x5c, 0x3a,
  0x6e, 0x5a, 0x06, 0xbe, 0xba, 0x09, 0x2c, 0xbc, 0x12, 0x5a, 0xe3, 0x3d,
  0x71, 0x96, 0x78, 0xbd, 0x8c, 0x63, 0x23, 0xbc, 0xad, 0xaf, 0x91, 0x3d,
  0x36, 0x56, 0xf7, 0xbd, 0xfd, 0xd5, 0x0e, 0x3d, 0xd8, 0xbe, 0x07, 0x3e,
  0xa4, 0x20, 0xd6, 0xbd, 0xa9, 0x57, 0x78, 0x3d, 0x6c, 0xaf, 0x67, 0xbd,
  0xc1, 0x5e, 0xf1, 0xbd, 0x39, 0x82, 0xd7, 0x3c, 0x47, 0xcf, 0x6d, 0x3d,
  0x71, 0xc7, 0xff, 0xbc, 0x8e, 0xfb, 0xf8, 0x3d, 0xa4, 0x04, 0xfc, 0x3d,
  0x12, 0xc9, 0xbb, 0xbc, 0x9e, 0x0a, 0xe5, 0xbd, 0xb8, 0xa2, 0x91, 0x3c,
  0x58, 0x3e, 0xbd, 0xbd, 0x5d, 0xe2, 0x01, 0x3e, 0x7c, 0x6a, 0xb6, 0xbd,
  0xcc, 0x32, 0x05, 0x3e, 0x4b, 0xb6, 0xcb, 0xbd, 0x91, 0x4b, 0xc7, 0xbd,
  0x94, 0x02, 0xe0, 0x3c, 0x3b, 0xef, 0xd4, 0xbd, 0xeb, 0x43, 0x8d, 0x3d,
  0x19, 0x30, 0x0f, 0x3d, 0x9f, 0xcf, 0x30, 0xbd, 0xec, 0x08, 0x33, 0x3d,
  0x11, 0x3a, 0xa2, 0x3d, 0xbc, 0x83, 0x19, 0x3e, 0x9a, 0x0b, 0x73, 0xbd,
  0xf3, 0xdd, 0xff, 0xbd, 0x00, 0x70, 0x7e, 0x3d, 0x1e, 0xe7, 0x77, 0x3c,
  0x84, 0x9e, 0xce, 0xbd, 0xb4, 0xee, 0x91, 0xbd, 0x50, 0x23, 0xb0, 0xbd,
  0x41, 0xe9, 0x54, 0xbd, 0x79, 0x18, 0x9c, 0xbd, 0x44, 0x45, 0x62, 0xbd,
  0x08, 0xe2, 0xa6, 0xbd, 0x3d, 0xaf, 0x06, 0xbe, 0x83, 0xde, 0x26, 0xbe,
  0x89, 0xdb, 0x75, 0x3d, 0xba, 0x9e, 0xa3, 0xbd, 0xcd, 0x33, 0xc2, 0x3d,
  0xdb, 0x28, 0x67, 0xb9, 0x48, 0x9e, 0x9c, 0x3c, 0xeb, 0x31, 0xdd, 0xbd,
  0x11, 0xfa, 0xbe, 0x3d, 0x88, 0xdf, 0x47, 0x3d, 0x0c, 0x9c, 0xfb, 0x3c,
  0xcd, 0x81, 0x52, 0x3d, 0xed, 0xe1, 0x85, 0x3d, 0x31, 0xd9, 0x65, 0xbb,
  0x76, 0x83, 0xf3, 0xbd, 0x11, 0x1e, 0xfc, 0xbb, 0x05, 0xa1, 0x08, 0x3c,
  0xce, 0x59, 0x22, 0x3e, 0xa6, 0xe8, 0xb3, 0x3d, 0x3e, 0x7e, 0xc7, 0x3d,
  0x90, 0x7d, 0x02, 0x3e, 0x50, 0x4f, 0x01, 0x3e, 0xd6, 0xca, 0x28, 0xbd,
  0x2e, 0x31, 0x5a, 0x3e, 0xdd, 0xd4, 0x36, 0x3e, 0xdb, 0x1e, 0x1c, 0x3e,
  0x38, 0x9c, 0x44, 0x3d, 0x4f, 0xbb, 0xfc, 0xbc, 0x2a, 0x03, 0xf1, 0xbb,
  0xa9, 0xe2, 0x07, 0x3e, 0x0c, 0xad, 0x0d, 0x3d, 0xac, 0xc3, 0x96, 0x3d,
  0x65, 0x14, 0x2d, 0x3c, 0xe3, 0x57, 0x03, 0x3e, 0xeb, 0xca, 0x9b, 0x3d,
  0x30, 0xbf, 0x96, 0xbd, 0x40, 0x02, 0x0e, 0x3d, 0x39, 0x82, 0xcd, 0x3d,
  0x21, 0x13, 0xcc, 0xbd, 0xa3, 0x3e, 0xf9, 0x3d, 0xbd, 0x3e, 0x42, 0xbd,
  0x0f, 0x9c, 0x19, 0xbe, 0x12, 0x34, 0xd0, 0xbd, 0xfe, 0x6f, 0xfe, 0x3c,
  0x91, 0x32, 0xbc, 0x3d, 0x29, 0x0d, 0x66, 0x3d, 0x24, 0x13, 0x91, 0xbc,
  0xfc, 0x3b, 0x9c, 0xbd, 0x67, 0xf1, 0x06, 0x3d, 0xdc, 0xf4, 0xf7, 0xbd,
  0x8c, 0x6c, 0x33, 0xbe, 0x7b, 0x5a, 0x19, 0xbd, 0xf7, 0xfb, 0x19, 0xbe,
  0x0f, 0xe0, 0xe2, 0xbc, 0x7f, 0xf9, 0xc1, 0xbd, 0xf3, 0xc8, 0x5c, 0xbe,
  0x92, 0x84, 0x36, 0x3d, 0x12, 0xa8, 0x2d, 0xbe, 0x01, 0x1c, 0x89, 0xbc,
  0x05, 0x92, 0x86, 0xbd, 0xd7, 0xa5, 0x28, 0xbd, 0x44, 0xdf, 0xc3, 0xbd,
  0xd4, 0x76, 0x81, 0xbc, 0xbe, 0xe8, 0x24, 0xbd, 0x59, 0xa0, 0x4c, 0x3d,
  0x04, 0xc9, 0x2b, 0xbe, 0xf2, 0xeb, 0xc6, 0xbd, 0x0e, 0x10, 0x03, 0xbe,
  0x6c, 0x67, 0x6c, 0xbd, 0x1b, 0xae, 0xb5, 0x3d, 0x7b, 0x62, 0x04, 0xbe,
  0x6e, 0xae, 0x07, 0x3c, 0xf1, 0x00, 0xe4, 0xbd, 0x43, 0x9d, 0x30, 0xbe,
  0xb8, 0xd6, 0x8b, 0x3c, 0x63, 0x43, 0xee, 0x3c, 0xe5, 0xe5, 0x07, 0xbd,
  0x41, 0x8b, 0xe0, 0xbc, 0xf5, 0x67, 0xb8, 0xbd, 0xcc, 0xca, 0xc2, 0xbd,
  0x2c, 0xac, 0xe3, 0xbd, 0x75, 0xec, 0xb4, 0x3d, 0xf4, 0xe9, 0x66, 0xbd,
  0xe7, 0x55, 0x89, 0x3d, 0x0e, 0x47, 0x0d, 0xbd, 0x26, 0x75, 0x95, 0x3c,
  0xbf, 0x97, 0xc2, 0xbd, 0x96, 0xbf, 0xdc, 0xbd, 0x4d, 0xa9, 0xa8, 0xbd,
  0xa8, 0xeb, 0x29, 0x3e, 0x79, 0xe0, 0x86, 0x3d, 0x26, 0xae, 0xb2, 0xbb,
  0xe4, 0xa5, 0x13, 0x3e, 0x47, 0x81, 0x93, 0xbd, 0x17, 0x21, 0x21, 0x3d,
  0x05, 0x6e, 0x8a, 0xbd, 0xae, 0x38, 0xb8, 0x3d, 0x53, 0x3f, 0x14, 0x3e,
  0x5b, 0x6f, 0x8c, 0xbd, 0xac, 0xb9, 0xb3, 0xbd, 0x29, 0x00, 0x3a, 0xbc,
  0x3f, 0x23, 0x17, 0x3e, 0x74, 0x3f, 0xd0, 0xbd, 0x0c, 0x3a, 0x08, 0x3e,
  0x55, 0x8f, 0xa2, 0xbc, 0x06, 0x64, 0x00, 0x3e, 0x48, 0xb7, 0x63, 0xbd,
  0x29, 0xcf, 0x75, 0xbd, 0xd9, 0x7b, 0x03, 0x3e, 0x27, 0xf2, 0x36, 0x3c,
  0x15, 0x03, 0x66, 0x3d, 0xe0, 0xc2, 0xc1, 0x3d, 0x13, 0xfb, 0xc2, 0x3d,
  0xb9, 0x83, 0xd7, 0x3d, 0x2b, 0x10, 0x4c, 0xbc, 0x13, 0xe9, 0x2a, 0x3e,
  0x81, 0x10, 0xbb, 0xbb, 0x05, 0xc7, 0xa8, 0xbd, 0xdf, 0x2d, 0xcc, 0x3d,
  0x77, 0xd3, 0xac, 0xbd, 0x5b, 0x50, 0x9e, 0xbd, 0x05, 0x71, 0xff, 0x3c,
  0x34, 0xf1, 0xc1, 0x3d, 0x23, 0xa3, 0x96, 0xbd, 0x70, 0x85, 0xcc, 0xbd,
  0xfd, 0x02, 0x45, 0x3d, 0x72, 0x65, 0x52, 0xbd, 0x97, 0xea, 0xd4, 0xbc,
  0xff, 0xf4, 0xcf, 0xbb, 0xe0, 0x85, 0x18, 0x3e, 0x15, 0xdc, 0x9c, 0xbd,
  0x0d, 0x46, 0x3f, 0xbc, 0xc4, 0x72, 0xe2, 0x3c, 0x69, 0xe8, 0x96, 0x3c,
  0xd7, 0xd7, 0x06, 0xbe, 0x0e, 0xfb, 0x80, 0xbb, 0x13, 0x72, 0x91, 0xbd,
  0xd0, 0x09, 0x94, 0xbd, 0x6c, 0x59, 0x4c, 0x3d, 0xdc, 0x73, 0x87, 0xbc,
  0x7d, 0x3d, 0x01, 0xbe, 0x7c, 0xd0, 0xdf, 0x3d, 0x28, 0x89, 0x9c, 0xbd,
  0xf1, 0xfb, 0xfe, 0xbc, 0x8e, 0x3e, 0x90, 0xbd, 0x5a, 0x02, 0x1e, 0xbd,
  0x35, 0x3b, 0xa8, 0x3d, 0xc9, 0x73, 0x45, 0x3d, 0xb7, 0x51, 0xf4, 0xbd,
  0xa4, 0x91, 0xcf, 0xbd, 0x09, 0x46, 0x2e, 0x3e, 0x98, 0xdd, 0x33, 0x3d,
  0xb2, 0xee, 0x01, 0x3e, 0xc8, 0x6f, 0x3e, 0xbd, 0xd2, 0xa1, 0x83, 0xbd,
  0x82, 0x7f, 0x9e, 0xbc, 0x46, 0xe6, 0x93, 0xbd, 0xfc, 0x1c, 0xc2, 0x3d,
  0x29, 0xd2, 0x07, 0x3e, 0xe0, 0xb8, 0xc0, 0x3d, 0x07, 0x94, 0xc6, 0xbd,
  0xb1, 0x9f, 0xd4, 0x3d, 0xa8, 0x15, 0x1d, 0x3e, 0xf7, 0xe1, 0x19, 0x3e,
  0x7c, 0x6f, 0x14, 0x3e, 0xce, 0x04, 0xec, 0xbd, 0x33, 0x50, 0x24, 0x3e,
  0xac, 0xfb, 0xcf, 0xbd, 0xcd, 0x2e, 0xe4, 0x3d, 0x46, 0xca, 0x8b, 0x3d,
  0xfa, 0x8b, 0x09, 0xbd, 0x7a, 0x99, 0x90, 0xbd, 0x62, 0x64, 0xfb, 0x3d,
  0x13, 0x9d, 0xe9, 0xbd, 0x99, 0xb7, 0x60, 0x3c, 0xe3, 0x3d, 0x88, 0xbd,
  0x3e, 0x4e, 0x04, 0x3e, 0x9d, 0x46, 0xc5, 0x3d, 0x42, 0xe0, 0xb0, 0xbc,
  0xeb, 0x13, 0x01, 0xbe, 0xa9, 0x4d, 0xc3, 0xbd, 0x28, 0x41, 0x9c, 0x3d,
  0x7b, 0x92, 0x58, 0xbd, 0x7d, 0x97, 0x40, 0xbd, 0xb8, 0x20, 0x4d, 0xbd,
  0xcc, 0xe3, 0x11, 0xbe, 0x2e, 0x62, 0xc9, 0xbc, 0x6f, 0x55, 0xd4, 0xbd,
  0xcc, 0x98, 0x4d, 0xbe, 0x3d, 0x89, 0x55, 0xbe, 0x70, 0x4a, 0xbb, 0xbd,
  0x5f, 0x2c, 0x73, 0x3d, 0x9a, 0xfe, 0xf3, 0xbd, 0xf2, 0x4c, 0xa1, 0xbb,
  0xf2, 0x24, 0x5a, 0xbe, 0xbd, 0x9e, 0x42, 0xbe, 0x17, 0x0a, 0x54, 0x3d,
  0x2c, 0x54, 0x12, 0xbe, 0x79, 0x6a, 0x38, 0xbe, 0x50, 0xf8, 0x1b, 0xbb,
  0x4f, 0x53, 0x6c, 0x3d, 0x7c, 0x2d, 0x4b, 0xbe, 0x64, 0x4f, 0x25, 0xbe,
  0x4f, 0x3a, 0xb7, 0xbc, 0x39, 0xc8, 0xa1, 0xbd, 0xd1, 0x1e, 0xe1, 0x3d,
  0x2f, 0x47, 0x88, 0xbd, 0x67, 0x69, 0xe9, 0xbd, 0x88, 0x62, 0x9f, 0x3d,
  0xcc, 0x77, 0x80, 0x3d, 0x27, 0xfe, 0xc9, 0x3d, 0x2a, 0x92, 0x82, 0x3d,
  0x86, 0x28, 0x6a, 0xbd, 0xac, 0xe7, 0xd6, 0xbc, 0xb6, 0x83, 0xd7, 0x3c,
  0x9d, 0xcf, 0x6d, 0xbb, 0xd3, 0x30, 0x36, 0x3e, 0xaf, 0x52, 0xba, 0x3d,
  0x3e, 0x34, 0x7b, 0xbd, 0x57, 0xb4, 0xad, 0x3d, 0x98, 0x1d, 0x45, 0x3e,
  0x77, 0x33, 0x0e, 0x3e, 0x48, 0xad, 0x5f, 0xbd, 0xb3, 0x4a, 0xa6, 0x3c,
  0xc5, 0xce, 0x38, 0x3c, 0xb7, 0xcb, 0x1b, 0x3e, 0xf0, 0x5c, 0x0e, 0xbc,
  0xce, 0xbc, 0x5f, 0x3d, 0xa8, 0xa7, 0x8a, 0xbd, 0x68, 0x6c, 0xef, 0x3d,
  0xeb, 0xe2, 0xf8, 0x3c, 0x82, 0xe8, 0xd9, 0xbc, 0xf9, 0x66, 0xad, 0x3d,
  0x99, 0x10, 0xb0, 0x3d, 0x60, 0x27, 0x03, 0x3e, 0xb0, 0x4b, 0x1f, 0x3e,
  0x69, 0xc6, 0x1a, 0xbd, 0x9e, 0x7e, 0x9d, 0xbd, 0xb9, 0xe2, 0xc0, 0xbc,
  0x04, 0xfe, 0x08, 0x3e, 0xd8, 0x89, 0x04, 0x3c, 0x62, 0xe9, 0x54, 0x3b,
  0x0d, 0x04, 0x08, 0xbe, 0xed, 0x11, 0x8c, 0x3d, 0x91, 0x3a, 0x4f, 0x3d,
  0x6b, 0x08, 0x11, 0xbe, 0x10, 0xf9, 0x80, 0xbd, 0x5d, 0x9a, 0xa5, 0xbd,
  0x4f, 0x9e, 0x93, 0x3b, 0x7f, 0x7f, 0x36, 0xbb, 0xac, 0x02, 0xae, 0xbd,
  0x14, 0x3d, 0xd8, 0xbd, 0xcc, 0x2c, 0xd8, 0x3c, 0x10, 0x90, 0x1c, 0xbe,
  0x16, 0x33, 0x29, 0x3d, 0x23, 0x41, 0xb6, 0x3d, 0x62, 0x58, 0xfd, 0x3d,
  0xcf, 0x8b, 0xb6, 0xbd, 0x0d, 0x74, 0x0b, 0x3d, 0xd0, 0xc2, 0xed, 0x3d,
  0xe2, 0x60, 0xbc, 0x3c, 0xf4, 0xd9, 0xbd, 0x3d, 0x17, 0x33, 0xda, 0x3d,
  0x56, 0xb9, 0x42, 0x3d, 0xa6, 0xbe, 0x2a, 0xbe, 0x1d, 0x27, 0x54, 0x3b,
  0x74, 0x56, 0xbd, 0x3c, 0x33, 0x49, 0x56, 0x3d, 0x7a, 0x15, 0x49, 0xbd,
  0xd0, 0x49, 0x50, 0x3c, 0xbd, 0x5d, 0x36, 0xbd, 0x4a, 0x12, 0xa9, 0xbc,
  0xf7, 0xc3, 0x05, 0x3e, 0x57, 0x11, 0x0e, 0xbe, 0x23, 0xae, 0xac, 0x3d,
  0x4c, 0xc1, 0x92, 0x3d, 0x66, 0xdc, 0xbb, 0x3d, 0xcf, 0x8a, 0x4d, 0xbd,
  0xfc, 0x3f, 0xc2, 0xbc, 0xe2, 0x29, 0xf2, 0x3d, 0xe7, 0xbc, 0xc2, 0xbd,
  0x91, 0xbc, 0x29, 0x3e, 0xb3, 0x6e, 0xda, 0x3c, 0x17, 0xfd, 0xe8, 0x3d,
  0xd1, 0xf6, 0x37, 0xbd, 0x79, 0xbc, 0xd0, 0x3b, 0x07, 0xf5, 0xdd, 0xbd,
  0x24, 0x63, 0x44, 0x3d, 0xc4, 0xaa, 0xe7, 0x3b, 0x45, 0xc1, 0x1d, 0x3d,
  0x5a, 0xac, 0x09, 0xbd, 0x9b, 0x04, 0x1d, 0xbd, 0x25, 0xf7, 0x89, 0xbd,
  0xde, 0x84, 0x4d, 0x3c, 0x33, 0xc7, 0xb5, 0x3d, 0x02, 0x34, 0x89, 0xbd,
  0x74, 0x47, 0x0f, 0x3e, 0x66, 0xa5, 0x0e, 0x3e, 0xfa, 0x3c, 0x4d, 0xbd,
  0x0a, 0x92, 0xc9, 0xbd, 0x1f, 0xcb, 0x9b, 0x3d, 0xff, 0x10, 0x49, 0x3d,
  0x01, 0xe2, 0xb7, 0x3d, 0x64, 0x35, 0xd9, 0x3d, 0x36, 0x7b, 0x96, 0x3c,
  0x7f, 0xf2, 0xc2, 0xbd, 0x4f, 0xc5, 0x07, 0x3d, 0x74, 0x70, 0xfa, 0x3d,
  0xd3, 0x86, 0xe2, 0xbd, 0x86, 0xfb, 0x8b, 0xbd, 0x72, 0x99, 0xc0, 0x3d,
  0x6f, 0x4c, 0xe3, 0x3d, 0x76, 0x26, 0xb4, 0x3d, 0xbd, 0xc6, 0x14, 0x3d,
  0xf1, 0x56, 0x90, 0xbc, 0x0d, 0xa5, 0xa8, 0xbc, 0x0c, 0x55, 0x9a, 0xbd,
  0x7e, 0x48, 0x2b, 0xbc, 0xea, 0x69, 0x8d, 0xbd, 0x2e, 0x65, 0x39, 0xbd,
  0x05, 0x29, 0x9d, 0x3d, 0x28, 0x5b, 0xc5, 0xbd, 0xa6, 0xb2, 0xf0, 0x3d,
  0xe0, 0xce, 0xc2, 0x3b, 0xf4, 0x2e, 0x0d, 0x3e, 0xfa, 0x0e, 0xff, 0xbd,
  0x7c, 0xd5, 0x11, 0x3e, 0x6c, 0x38, 0xd8, 0xbd, 0x16, 0x33, 0x98, 0xbc,
  0x8d, 0xb5, 0x46, 0xbd, 0xec, 0x9e, 0xc0, 0xbd, 0xd2, 0xd3, 0xbe, 0x3d,
  0xf7, 0x83, 0x0a, 0x3e, 0xf8, 0xe7, 0xe2, 0xbd, 0x30, 0xc4, 0xe9, 0xbd,
  0xcd, 0xb8, 0x8f, 0xbd, 0x78, 0x5e, 0x8d, 0x3d, 0xbb, 0x9f, 0xa2, 0xbc,
  0xc1, 0xc4, 0xfc, 0xbd, 0xb1, 0xe1, 0xff, 0x3c, 0xb9, 0xe8, 0x91, 0x3d,
  0xa7, 0x29, 0xab, 0xbd, 0x95, 0x25, 0x7b, 0xbd, 0x01, 0xaa, 0xb5, 0x3c,
  0x29, 0x99, 0xc1, 0xbd, 0x5e, 0x0b, 0x12, 0x3e, 0x60, 0x6b, 0x0c, 0xbe,
  0x5e, 0x2b, 0x35, 0xbc, 0xc8, 0x2b, 0x53, 0x3d, 0x90, 0x0a, 0x18, 0xbe,
  0x10, 0x86, 0xb7, 0x3d, 0xe7, 0x6d, 0x70, 0x3d, 0x09, 0x6f, 0xfc, 0x3d,
  0xae, 0x5a, 0xe8, 0x3d, 0x24, 0x3f, 0x52, 0x3d, 0xca, 0x48, 0xa0, 0xbd,
  0x62, 0x66, 0x82, 0x3d, 0xb9, 0x76, 0x1a, 0x3e, 0xe8, 0x9c, 0x0e, 0xbc,
  0x63, 0xdb, 0x91, 0xbd, 0x66, 0x59, 0xe1, 0x3d, 0xf1, 0x4a, 0xd4, 0x3c,
  0xec, 0x23, 0x74, 0x3d, 0x4a, 0x51, 0x48, 0x3b, 0x2e, 0xbb, 0xb9, 0x3c,
  0xdc, 0x7d, 0x8d, 0x3d, 0xcc, 0xe4, 0x7c, 0xbd, 0x7c, 0x43, 0xf1, 0xbb,
  0x9f, 0xbb, 0xe5, 0xbd, 0xfc, 0x01, 0x38, 0x3d, 0x33, 0x26, 0xc9, 0xbc,
  0x8f, 0x4e, 0x0d, 0x3e, 0xb7, 0xb0, 0xf0, 0xbd, 0x13, 0xf6, 0x18, 0xbd,
  0x5a, 0xf2, 0x1d, 0x3e, 0x60, 0xa9, 0x47, 0x3d, 0xf3, 0xeb, 0x00, 0xbb,
  0x98, 0xce, 0x89, 0x3d, 0x0a, 0x4e, 0xb5, 0xbd, 0xe4, 0x2f, 0xb3, 0xbd,
  0x34, 0x69, 0xaf, 0x3b, 0xf7, 0xf3, 0xa2, 0x3d, 0x7c, 0xae, 0x9d, 0xbd,
  0x6a, 0x4d, 0x34, 0x3b, 0x29, 0x23, 0x53, 0x3d, 0xf5, 0xf3, 0x58, 0x3d,
  0xf8, 0x32, 0x75, 0xbd, 0x23, 0x42, 0x11, 0x3e, 0xc2, 0xf6, 0xed, 0xbd,
  0xde, 0x3d, 0x30, 0xbd, 0xb7, 0xa5, 0x31, 0x3d, 0xf1, 0x82, 0xd8, 0x3d,
  0x9e, 0xbf, 0xf1, 0x3d, 0x1f, 0xd1, 0xca, 0xbd, 0xb8, 0x48, 0x49, 0xbd,
  0xf3, 0xda, 0xba, 0xbd, 0x35, 0xb1, 0x9e, 0x3d, 0xc6, 0x79, 0x9c, 0x3d,
  0xaf, 0x2b, 0xc5, 0xbd, 0x5c, 0xfa, 0xb0, 0x3d, 0x01, 0xa5, 0x17, 0xbd,
  0x7d, 0x3e, 0x61, 0x3c, 0xba, 0x8f, 0x7a, 0x3d, 0x71, 0xe5, 0x56, 0x3d,
  0x38, 0xac, 0x8c, 0xbd, 0x78, 0x87, 0xb8, 0xbd, 0x1f, 0xc0, 0x78, 0xbd,
  0x8c, 0x5f, 0x8a, 0xbd, 0xe7, 0xc5, 0xea, 0xbd, 0x19, 0x9a, 0x82, 0xbd,
  0xc0, 0xc2, 0xa4, 0xbd, 0x59, 0x6a, 0xb6, 0x3d, 0xf3, 0x98, 0x0a, 0x3e,
  0x30, 0x7f, 0xed, 0xbc, 0xe7, 0xe6, 0x16, 0x3c, 0x49, 0x9f, 0x9f, 0xbc,
  0xef, 0x28, 0xaf, 0xbd, 0xfc, 0x1b, 0xd9, 0xbd, 0xb0, 0x94, 0xef, 0xbc,
  0x5f, 0x6c, 0x37, 0xbd, 0x3b, 0xcb, 0x93, 0xbd, 0xac, 0x11, 0x9f, 0xbd,
  0xf8, 0xe8, 0x28, 0x3d, 0x57, 0x84, 0x26, 0x3e, 0x0d, 0xed, 0x08, 0x3e,
  0x7b, 0x7d, 0xca, 0x3d, 0x8c, 0xdc, 0xa8, 0x3d, 0x11, 0xa7, 0x00, 0xbe,
  0xd7, 0x9d, 0x16, 0xbd, 0x03, 0x80, 0x23, 0x3e, 0xb2, 0x93, 0x64, 0x3d,
  0xd7, 0x02, 0x64, 0x3d, 0x9f, 0x78, 0xe7, 0xbd, 0xa7, 0x8a, 0xe5, 0x3d,
  0x7d, 0x27, 0x68, 0x3d, 0x24, 0x2f, 0x9a, 0x3d, 0x74, 0xc7, 0xca, 0xbd,
  0xcc, 0x6e, 0x86, 0x3d, 0x21, 0x0f, 0x02, 0xbe, 0x8b, 0x0c, 0x0a, 0xbe,
  0x77, 0x1b, 0x02, 0x3e, 0xa5, 0x21, 0x84, 0x3d, 0x3b, 0x20, 0xc7, 0xbd,
  0x1c, 0x0b, 0x57, 0xbd, 0x26, 0xab, 0xb6, 0x3d, 0x54, 0x23, 0x06, 0x3c,
  0xfd, 0x05, 0x07, 0x3d, 0xc8, 0xa3, 0x03, 0xbe, 0xa1, 0x5c, 0xe1, 0x3d,
  0xb1, 0x97, 0x2c, 0xbd, 0xa6, 0xc6, 0xad, 0x3d, 0x36, 0x29, 0x5b, 0x3d,
  0x42, 0x74, 0x13, 0x3d, 0x59, 0x28, 0x9a, 0x3c, 0xc3, 0xf3, 0xa9, 0x3d,
  0x68, 0xa5, 0x20, 0xbe, 0x8d, 0xdb, 0x2b, 0xbc, 0x59, 0xcd, 0x95, 0x3d,
  0xf0, 0x95, 0x61, 0x3b, 0x0b, 0x31, 0xdd, 0xbd, 0x48, 0x72, 0x8d, 0xbc,
  0x6b, 0x41, 0x5b, 0xbe, 0x11, 0x85, 0x75, 0x3d, 0x6c, 0xde, 0x76, 0x3c,
  0x0d, 0xd1, 0x25, 0xbe, 0x9d, 0x02, 0x46, 0xbe, 0xa9, 0xe2, 0x63, 0x3d,
  0x5b, 0x85, 0x6c, 0xbe, 0xb4, 0xd1, 0x1f, 0xbe, 0x10, 0xe7, 0xb9, 0xbd,
  0x6e, 0x3f, 0x25, 0xbe, 0xce, 0x42, 0x82, 0xbd, 0x6b, 0x58, 0x83, 0xbd,
  0x23, 0xef, 0x54, 0xbe, 0xa2, 0xd0, 0x8c, 0xbd, 0x33, 0x1c, 0x6e, 0x3d,
  0x9b, 0x52, 0x87, 0x3d, 0x2f, 0xdf, 0x7d, 0x3d, 0xa6, 0xe8, 0xe3, 0xbd,
  0x26, 0xc6, 0x29, 0x3d, 0xcb, 0x12, 0xac, 0xbd, 0x7f, 0xd3, 0x0e, 0xbe,
  0xbf, 0xb3, 0x83, 0x3d, 0xff, 0x4f, 0x3e, 0x3b, 0xbb, 0x85, 0x07, 0xbc,
  0x26, 0x3b, 0x26, 0xbe, 0x3c, 0xab, 0x2d, 0xbd, 0x23, 0x5c, 0xd0, 0x3d,
  0x27, 0x06, 0xe1, 0xbc, 0x3d, 0x4a, 0x60, 0x3c, 0x5a, 0xf4, 0xb3, 0xbd,
  0x12, 0x1c, 0x1e, 0x3c, 0xa2, 0xa1, 0x4d, 0x3e, 0xf1, 0xc7, 0x77, 0xbd,
  0x4d, 0x03, 0x4e, 0x3e, 0x5a, 0x54, 0x6c, 0x3d, 0xc5, 0x86, 0x96, 0xbd,
  0xea, 0xd4, 0x44, 0x3e, 0x04, 0x72, 0x9d, 0x3c, 0xd3, 0x92, 0x2e, 0x3e,
  0x4a, 0x55, 0xb7, 0x3d, 0xad, 0xf3, 0x4a, 0x3e, 0xa6, 0xf8, 0x23, 0x3d,
  0x53, 0x30, 0x17, 0x3e, 0x4f, 0x14, 0xa2, 0x3d, 0x81, 0xa9, 0x15, 0x3e,
  0xad, 0x2b, 0x39, 0x3e, 0x40, 0x13, 0xd9, 0x3c, 0x8c, 0x17, 0x5b, 0x3e,
  0x09, 0x9a, 0x87, 0xbd, 0x8f, 0x58, 0xbc, 0x3d, 0xfd, 0x9d, 0x17, 0x3e,
  0x7c, 0x4d, 0x73, 0xb9, 0x36, 0x83, 0xd2, 0x3d, 0xf7, 0xe0, 0xa3, 0xbd,
  0x12, 0x3d, 0x15, 0xbd, 0x67, 0x8d, 0x27, 0xbe, 0x2d, 0x25, 0xc6, 0xbd,
  0x96, 0x5b, 0xd6, 0xbd, 0xfe, 0x38, 0xa3, 0xbc, 0x8f, 0x3c, 0xa7, 0xbd,
  0x30, 0x60, 0xf4, 0x3c, 0x81, 0x3a, 0xe8, 0x3c, 0x99, 0x19, 0x1e, 0xbd,
  0xf8, 0x57, 0xf8, 0x3d, 0x95, 0xfa, 0xb6, 0xbc, 0x13, 0xe9, 0xf3, 0x3d,
  0xe0, 0x79, 0x85, 0xbd, 0xef, 0x4d, 0x0f, 0x3c, 0x49, 0xf0, 0x78, 0x3c,
  0x32, 0xe1, 0xe9, 0xbd, 0xd2, 0xfe, 0x8e, 0x3d, 0x8a, 0xd9, 0x83, 0x3d,
  0xff, 0xa5, 0xd7, 0x3c, 0x10, 0xf9, 0xee, 0xbd, 0xfc, 0x24, 0xcd, 0x3d,
  0xfb, 0x6d, 0xfa, 0xbd, 0xac, 0xf4, 0x10, 0x3e, 0x55, 0xbe, 0xe3, 0xbd,
  0xfc, 0x60, 0x26, 0x3e, 0xd7, 0x63, 0x57, 0xbd, 0x3e, 0xd7, 0x63, 0x3d,
  0x58, 0xc2, 0xf9, 0xbd, 0x35, 0x58, 0xf9, 0xbd, 0x17, 0x97, 0x24, 0x3e,
  0x3a, 0x71, 0xff, 0xbc, 0xbd, 0x56, 0x45, 0x3d, 0x95, 0x2a, 0x0e, 0xbc,
  0x08, 0x4d, 0xa7, 0xbd, 0x75, 0xf0, 0x94, 0xbd, 0x55, 0x95, 0x85, 0xbd,
  0xa9, 0x3c, 0x21, 0x3e, 0x70, 0x1e, 0x59, 0x3d, 0x0e, 0x40, 0xcd, 0xbc,
  0xcd, 0x57, 0x0c, 0x3e, 0x73, 0xe4, 0x0b, 0x3e, 0x0d, 0x6a, 0xb6, 0xbc,
  0x8c, 0x5f, 0x77, 0x3d, 0x2a, 0x64, 0xb9, 0xbd, 0xd9, 0x07, 0x18, 0x3e,
  0x13, 0x46, 0x3d, 0x3d, 0xf6, 0x69, 0x99, 0xbd, 0x74, 0xcf, 0xb6, 0xbd,
  0x47, 0x97, 0x7d, 0xbd, 0x2d, 0xf2, 0xc3, 0x3d, 0x8b, 0x2d, 0x1a, 0x3e,
  0xd1, 0x6b, 0xc7, 0xbd, 0xdc, 0x68, 0x3d, 0xbd, 0x28, 0xb2, 0xd9, 0xbc,
  0x7a, 0x1a, 0x09, 0x3e, 0xbb, 0xe9, 0x2e, 0xbd, 0xd8, 0x83, 0xe9, 0x3c,
  0x5a, 0x70, 0x80, 0x3d, 0xb9, 0x84, 0x65, 0xbd, 0x51, 0x2e, 0xa9, 0xbd,
  0x68, 0x96, 0x84, 0x3d, 0x9a, 0xd9, 0x0a, 0xbe, 0x93, 0x90, 0x0f, 0x3e,
  0xa2, 0x83, 0xb4, 0x3d, 0xab, 0x4e, 0xb3, 0x3d, 0xd8, 0xc3, 0xaf, 0xbc,
  0xbe, 0x08, 0xe8, 0xbd, 0x24, 0xe6, 0xc8, 0xbd, 0x53, 0xc1, 0x5c, 0xbd,
  0x38, 0xa0, 0xf0, 0x3c, 0x07, 0xa7, 0x0b, 0xbe, 0x1a, 0xdd, 0x95, 0xbd,
  0x17, 0xe6, 0x03, 0xbe, 0x41, 0xdc, 0x82, 0x3d, 0xf9, 0x73, 0x0e, 0xbd,
  0xda, 0x74, 0xe8, 0x3d, 0x4b, 0x19, 0x11, 0xbd, 0x3f, 0x0f, 0xf1, 0x3d,
  0xb2, 0x3a, 0xc1, 0x3c, 0x85, 0x4c, 0x72, 0xbd, 0x20, 0x9d, 0x88, 0x3d,
  0x40, 0x90, 0x01, 0xbd, 0x5a, 0xe7, 0xe6, 0xbc, 0x87, 0xc3, 0x45, 0x3d,
  0xda, 0x4d, 0xa1, 0x3c, 0x63, 0x3b, 0x21, 0xbe, 0xad, 0x08, 0x8c, 0xbd,
  0x1f, 0x2c, 0xe2, 0x3d, 0x95, 0xd1, 0x76, 0x3b, 0x4f, 0x9d, 0x90, 0xbd,
  0x64, 0x57, 0x0d, 0xbd, 0xab, 0x81, 0x98, 0xbd, 0xca, 0xe4, 0x87, 0x3d,
  0x88, 0x66, 0xf9, 0x3d, 0x70, 0x08, 0x49, 0xbd, 0x7a, 0xd9, 0x12, 0x3e,
  0x0a, 0xfb, 0x2d, 0x3c, 0x5c, 0x79, 0x95, 0x3d, 0x07, 0x87, 0x03, 0xbe,
  0xef, 0x87, 0x02, 0xbe, 0x48, 0xd6, 0xf5, 0xbd, 0x12, 0x5b, 0xfd, 0xbd,
  0x52, 0x3b, 0x1e, 0xbe, 0x68, 0x08, 0x35, 0xbe, 0x5a, 0x6f, 0x89, 0xbd,
  0x70, 0xf6, 0x48, 0xbe, 0xf0, 0x96, 0x43, 0xbe, 0x23, 0x28, 0xb4, 0xbc,
  0xc5, 0x9c, 0x49, 0xbe, 0xc7, 0x72, 0xa7, 0x3b, 0xa0, 0xd0, 0x88, 0x3d,
  0x32, 0x55, 0x56, 0xbe, 0xce, 0xf8, 0x4c, 0xbe, 0x77, 0x6b, 0x0c, 0x3d,
  0x12, 0x1d, 0x31, 0xbe, 0x5e, 0xb6, 0x2e, 0xbe, 0x32, 0x8a, 0xa6, 0x3d,
  0x70, 0x35, 0x9a, 0xbc, 0x41, 0x64, 0x67, 0xbc, 0xb4, 0x8b, 0xd1, 0x3d,
  0xe9, 0xdb, 0x13, 0x3d, 0xa9, 0x2a, 0x3c, 0x3d, 0xe3, 0xac, 0xe6, 0xbd,
  0x79, 0x30, 0x9e, 0x3d, 0x5e, 0x71, 0xe5, 0xbc, 0x01, 0x71, 0xcc, 0xbd,
  0x1e, 0x48, 0xce, 0xbd, 0xf2, 0xa4, 0x02, 0x3e, 0xbd, 0xae, 0xb0, 0x3d,
  0x57, 0xdd, 0x04, 0x3d, 0x64, 0x30, 0x9b, 0xbd, 0x66, 0x14, 0x89, 0xbd,
  0xc7, 0x68, 0x6c, 0xbc, 0x35, 0x23, 0xe9, 0xbd, 0x6a, 0x30, 0xdc, 0xbd,
  0x5f, 0x2c, 0x82, 0x3d, 0xf4, 0x75, 0xcc, 0xbd, 0xc9, 0x82, 0x19, 0xbd,
  0x41, 0x67, 0xa6, 0xbd, 0x10, 0xec, 0xe9, 0x3c, 0x80, 0x95, 0x9a, 0x3d,
  0x60, 0xd3, 0x10, 0x3e, 0x5a, 0x12, 0x0e, 0xbe, 0x00, 0x57, 0x04, 0xbd,
  0x10, 0xcd, 0xba, 0x3c, 0x94, 0x78, 0xb0, 0xbc, 0x73, 0x7d, 0xd6, 0xbd,
  0xbe, 0x90, 0xbf, 0x3d, 0x5d, 0x78, 0x84, 0xbc, 0x3d, 0x14, 0x51, 0x3d,
  0x1e, 0x75, 0xbd, 0xbd, 0xe7, 0x42, 0xe0, 0xbb, 0x9a, 0x22, 0xab, 0xbd,
  0x9d, 0xa6, 0x4d, 0xbd, 0x8e, 0x74, 0xe5, 0x3d, 0xcb, 0xc1, 0xad, 0x3d,
  0xf8, 0x03, 0x7b, 0xbd, 0x17, 0xe0, 0x9c, 0xbd, 0x0c, 0xa5, 0xc5, 0xbd,
  0xea, 0x95, 0x96, 0x3c, 0x51, 0xeb, 0x1d, 0xbe, 0x7f, 0x6b, 0x24, 0xbe,
  0x00, 0x91, 0x3c, 0xbc, 0x84, 0x0d, 0xe0, 0xbd, 0x89, 0xc2, 0x7e, 0x3d,
  0xa4, 0xc9, 0xb4, 0x3d, 0x6b, 0xc5, 0x7c, 0x3c, 0x08, 0xce, 0x1e, 0x3b,
  0xe8, 0xae, 0x90, 0x3d, 0x50, 0x23, 0x99, 0x3a, 0x2e, 0x72, 0xda, 0xbd,
  0x2c, 0xa5, 0x2b, 0xbe, 0x7b, 0xa6, 0x9e, 0xbd, 0x08, 0xfe, 0xc8, 0xbd,
  0x59, 0x3a, 0x01, 0xbb, 0xea, 0x02, 0xba, 0xbd, 0x81, 0xb2, 0xa8, 0xbd,
  0x5d, 0xaa, 0xb8, 0xbd, 0x3a, 0x39, 0x15, 0xbc, 0x00, 0x61, 0x33, 0xbe,
  0xbb, 0x49, 0x03, 0xbe, 0x4e, 0xd3, 0xf5, 0xbc, 0xf7, 0x49, 0x58, 0xbe,
  0xa6, 0xe6, 0x96, 0xbd, 0xb7, 0x15, 0x22, 0xbe, 0x05, 0x96, 0x66, 0xbc,
  0xd7, 0x81, 0x56, 0xbc, 0x8d, 0xcf, 0xf3, 0xbd, 0xc3, 0xc6, 0x26, 0x3d,
  0x6c, 0xb6, 0x6a, 0x3c, 0x26, 0xfa, 0x1d, 0x3e, 0xa3, 0x38, 0x21, 0x3e,
  0xa0, 0x14, 0x79, 0x3d, 0xae, 0xc7, 0x86, 0xbc, 0xba, 0x46, 0x03, 0xbd,
  0x3d, 0x12, 0xa2, 0xbd, 0x52, 0xa8, 0x43, 0xbd, 0x9b, 0xb5, 0x80, 0x3c,
  0xae, 0xca, 0x27, 0x3d, 0x2a, 0x76, 0xc4, 0xbd, 0x57, 0xbf, 0x50, 0xbd,
  0x87, 0x15, 0x10, 0xbd, 0xa2, 0xeb, 0xae, 0xbd, 0x95, 0x16, 0xab, 0xbd,
  0xaa, 0x96, 0xaf, 0x3c, 0xb4, 0xdc, 0x32, 0xbd, 0xb1, 0x07, 0x8d, 0xbd,
  0xd7, 0xe8, 0x1e, 0xbc, 0xe7, 0x5e, 0x11, 0x3d, 0x0e, 0xdd, 0x24, 0x3e,
  0xb2, 0x89, 0xdd, 0xbd, 0xb9, 0x13, 0x50, 0x3d, 0xe1, 0x9a, 0xa5, 0xbb,
  0x19, 0x0e, 0x30, 0xbd, 0x94, 0xd1, 0xd5, 0xbc, 0x50, 0xe7, 0xcf, 0x3d,
  0xf8, 0xbc, 0xe4, 0x3d, 0xf4, 0xbb, 0x86, 0xbc, 0xbc, 0x42, 0xf6, 0xbc,
  0xc9, 0xfd, 0x17, 0x3e, 0xab, 0xec, 0x0b, 0x3e, 0x54, 0xaf, 0xbc, 0xbb,
  0x1c, 0xe0, 0x0f, 0xbe, 0xcd, 0xb3, 0x8c, 0x3d, 0x24, 0xab, 0x08, 0xbd,
  0xfe, 0x61, 0x13, 0x3d, 0xe6, 0x66, 0xff, 0x3c, 0xdb, 0x91, 0xaf, 0x3d,
  0x7e, 0x35, 0xf7, 0xbd, 0x5f, 0x2b, 0x2b, 0xbc, 0x2a, 0x48, 0xdf, 0xbb,
  0x84, 0xe5, 0x23, 0xbd, 0xfe, 0xdb, 0x37, 0xbd, 0xf4, 0x8d, 0x83, 0x3d,
  0x4a, 0x95, 0xf1, 0xbd, 0xb5, 0x54, 0xf4, 0xbb, 0x07, 0x05, 0xf3, 0x3d,
  0x0b, 0x90, 0x9c, 0x3d, 0x56, 0xcd, 0xb0, 0xbd, 0x76, 0xa3, 0xdb, 0x3d,
  0x95, 0x2f, 0xce, 0xbb, 0x97, 0xd3, 0xc0, 0x3d, 0xf4, 0x3c, 0x08, 0x3c,
  0x32, 0x88, 0x7a, 0x3d, 0xfb, 0xdd, 0x2a, 0xbd, 0x8a, 0x37, 0x16, 0x3d,
  0x70, 0xd7, 0xe7, 0xbc, 0x5b, 0xd1, 0xdd, 0xbc, 0xa8, 0xb4, 0x0d, 0xbe,
  0xc2, 0x84, 0x1d, 0x3b, 0x39, 0xf1, 0x9d, 0x3c, 0x0b, 0x3d, 0xeb, 0x3d,
  0xd2, 0x1a, 0x0f, 0x3d, 0x8e, 0xee, 0x39, 0xbd, 0xf2, 0xa1, 0xd8, 0xbd,
  0x04, 0xff, 0xb5, 0x3d, 0xc5, 0xec, 0x04, 0xbe, 0x69, 0xf5, 0xfa, 0x3c,
  0x7f, 0xd9, 0x98, 0x3d, 0x1b, 0xf8, 0x96, 0xbc, 0x5b, 0x57, 0x01, 0x3d,
  0x14, 0xc5, 0x51, 0x3d, 0x12, 0x63, 0xbc, 0x3c, 0xd4, 0x14, 0x87, 0x3d,
  0xa8, 0xf6, 0x2c, 0xbd, 0x28, 0xad, 0x98, 0xbd, 0x63, 0x2b, 0x35, 0xbd,
  0x8d, 0x8e, 0xc5, 0xbd, 0xb7, 0xa2, 0xa6, 0xbb, 0xf9, 0xf4, 0xb2, 0xbc,
  0xab, 0xd3, 0x03, 0x3e, 0xd8, 0x1d, 0xd6, 0x3d, 0x73, 0xbd, 0x83, 0x3d,
  0xfb, 0x91, 0xeb, 0x3c, 0x84, 0x95, 0xe8, 0xbd, 0xb7, 0x84, 0x94, 0x3d,
  0xb1, 0xaa, 0x03, 0x3d, 0x3e, 0x85, 0xe6, 0x3d, 0x70, 0x43, 0x31, 0x3d,
  0x5d, 0x38, 0x35, 0x3b, 0xf2, 0x90, 0xb6, 0xbd, 0xf7, 0x31, 0x1a, 0x3e,
  0x81, 0x1e, 0xd7, 0xbd, 0x53, 0x8e, 0x21, 0x3e, 0xd8, 0xf6, 0xe9, 0x3c,
  0xd9, 0x2b, 0xa1, 0x3c, 0x8f, 0x16, 0x85, 0xbc, 0x5a, 0x70, 0xd2, 0x3d,
  0x17, 0xde, 0x88, 0x3d, 0x86, 0xd2, 0x8c, 0xbd, 0x9d, 0x95, 0xb3, 0xbb,
  0x83, 0xc3, 0xdb, 0x3d, 0x50, 0x21, 0xd6, 0xbd, 0x0f, 0x50, 0xab, 0x3c,
  0x24, 0x2b, 0x41, 0x3d, 0x81, 0x2a, 0xb9, 0x3d, 0x54, 0xb5, 0xf6, 0xbd,
  0x6f, 0x85, 0xe5, 0x3b, 0x56, 0x61, 0x92, 0x3d, 0x1b, 0x96, 0xb4, 0xbd,
  0xdc, 0x5b, 0x57, 0xbb, 0x1a, 0x1c, 0x2f, 0xbe, 0xc7, 0x2c, 0x28, 0xbe,
  0xde, 0x8b, 0x3b, 0x3d, 0x39, 0xb0, 0x08, 0xbb, 0x69, 0x17, 0x87, 0x3d,
  0xd6, 0xc3, 0x1f, 0x3d, 0xb4, 0xac, 0x01, 0xbe, 0x21, 0x5f, 0x6d, 0xbd,
  0x37, 0x70, 0x49, 0xbe, 0xdd, 0xd6, 0x08, 0x3d, 0x4a, 0xca, 0xbc, 0xbd,
  0xf4, 0xff, 0x69, 0x3c, 0xd2, 0xc7, 0x4c, 0xbe, 0xe2, 0x1b, 0x1c, 0xbc,
  0xaf, 0x1b, 0x11, 0xbd, 0xfb, 0x6b, 0x89, 0xbd, 0x93, 0x3c, 0x39, 0xbd,
  0x7b, 0xbe, 0x9e, 0x3d, 0xf3, 0xaf, 0xeb, 0xbc, 0xcf, 0xd4, 0xc6, 0xbd,
  0x9a, 0xa5, 0x9b, 0xbd, 0x6c, 0xc3, 0x79, 0x3c, 0xbd, 0xdf, 0xa8, 0xbd,
  0xad, 0x2f, 0x7b, 0xbd, 0x0e, 0x63, 0x39, 0xbe, 0xc9, 0x16, 0xc4, 0xbd,
  0x47, 0xb2, 0x47, 0x3d, 0x54, 0x6f, 0xa5, 0xbd, 0xa5, 0x58, 0x0c, 0x3b,
  0xae, 0x8e, 0x12, 0xbe, 0xfd, 0x3f, 0x28, 0xbd, 0x5b, 0x40, 0x33, 0xbd,
  0x5f, 0x3b, 0x11, 0xbd, 0x72, 0x46, 0x34, 0xbe, 0x3f, 0x91, 0x43, 0x3c,
  0xb7, 0x16, 0x32, 0xbe, 0xe6, 0x15, 0x4b, 0xbc, 0x3d, 0xe6, 0x26, 0xbe,
  0x0c, 0x28, 0x1e, 0x3d, 0x06, 0xf0, 0xcd, 0xbd, 0x85, 0x74, 0x72, 0xbc,
  0xce, 0x1d, 0x82, 0x3a, 0x28, 0x53, 0xa7, 0x3d, 0x89, 0xd5, 0xcc, 0xbc,
  0xed, 0x34, 0x85, 0xbd, 0x73, 0xb7, 0x1e, 0x3d, 0xc7, 0x44, 0xe4, 0x3d,
  0xba, 0x5a, 0xe5, 0xbd, 0xdd, 0x52, 0xc8, 0xbd, 0xc1, 0x93, 0x1e, 0x3d,
  0xcd, 0xe7, 0x1c, 0x3e, 0xe2, 0xf1, 0xf0, 0xbd, 0x78, 0xa7, 0x64, 0xbd,
  0xa4, 0xa5, 0x17, 0x3e, 0x7c, 0xfc, 0x19, 0x3d, 0xaf, 0xca, 0xe4, 0x38,
  0x1f, 0x6f, 0xb8, 0x3c, 0x5f, 0x53, 0x83, 0x3b, 0x18, 0xba, 0xda, 0x3d,
  0x7b, 0xf8, 0xde, 0x3d, 0x41, 0xcd, 0xcf, 0x3c, 0x09, 0x34, 0x78, 0x3d,
  0x6a, 0x88, 0x8d, 0xbd, 0x7f, 0x22, 0xd1, 0x3d, 0xb1, 0x9c, 0xa1, 0xbd,
  0xb4, 0xbc, 0x2d, 0xbe, 0x93, 0x44, 0xe7, 0xbc, 0x0e, 0x43, 0x20, 0xbe,
  0xb4, 0xed, 0x10, 0x3d, 0x69, 0x28, 0x37, 0xbd, 0xa1, 0x48, 0xdd, 0x3d,
  0xe4, 0x69, 0xd6, 0x3d, 0xaa, 0xd6, 0x52, 0x3d, 0x0e, 0x90, 0x45, 0x3d,
  0xd2, 0x50, 0x13, 0xbd, 0x9c, 0x85, 0xb8, 0x3d, 0xe1, 0x53, 0x9e, 0xbd,
  0x09, 0x40, 0x52, 0x3d, 0xb4, 0x75, 0x05, 0x3e, 0x2f, 0x51, 0x67, 0x3d,
  0xb1, 0x7b, 0xc4, 0xbd, 0x4b, 0x3f, 0x21, 0xbc, 0xb3, 0x00, 0xde, 0xbd,
  0xf3, 0xe1, 0xab, 0x3d, 0xcd, 0xad, 0xbe, 0x3d, 0x2e, 0x0b, 0x07, 0x3d,
  0x3c, 0xd5, 0xff, 0x3b, 0xee, 0x2a, 0xda, 0x3d, 0xf9, 0xde, 0xef, 0x3d,
  0xd8, 0x24, 0x95, 0xbc, 0xf2, 0x1a, 0x42, 0x3d, 0x32, 0x8a, 0xfd, 0x3d,
  0xca, 0x98, 0xd0, 0xbd, 0x00, 0x5e, 0x64, 0x3d, 0x7b, 0x42, 0x0a, 0xbd,
  0x8f, 0x83, 0x80, 0x3d, 0xa6, 0x95, 0xf0, 0x3c, 0x7f, 0x87, 0xc3, 0xbd,
  0x91, 0xd2, 0x0e, 0x3d, 0xb4, 0x87, 0xab, 0x3d, 0xd3, 0x78, 0x6f, 0x3d,
  0x32, 0x0f, 0xff, 0x3d, 0x9c, 0xcc, 0x83, 0x3d, 0x8e, 0x4f, 0x14, 0xbe,
  0xf9, 0x6a, 0xbb, 0x3d, 0xfd, 0x1b, 0x3c, 0xbd, 0xe4, 0x73, 0xa3, 0xbc,
  0x29, 0xd6, 0x18, 0xbd, 0x75, 0xd8, 0x1a, 0xbe, 0x6b, 0x0e, 0xff, 0xbd,
  0x28, 0x4b, 0xe1, 0x3d, 0x5f, 0x77, 0x11, 0xbe, 0x77, 0x87, 0xd0, 0x3d,
  0x0e, 0x16, 0xaa, 0x3d, 0x00, 0xc7, 0xc2, 0xbd, 0xa8, 0xda, 0x5b, 0x3d,
  0x35, 0x2f, 0xb8, 0xbd, 0xbb, 0xfd, 0xb3, 0x3d, 0xe4, 0x18, 0xe6, 0x3b,
  0x8c, 0xc9, 0x83, 0xbd, 0x13, 0xdb, 0xf2, 0xbd, 0x64, 0xaf, 0x78, 0x3d,
  0x5c, 0x51, 0x8a, 0xbd, 0x12, 0xd8, 0xd2, 0xbd, 0xf0, 0x84, 0x80, 0x3d,
  0x93, 0x25, 0xc0, 0x3d, 0x1e, 0xcd, 0xc7, 0x3d, 0x58, 0x52, 0xe9, 0x3d,
  0x25, 0x13, 0x57, 0xbc, 0xe9, 0x93, 0x35, 0x3c, 0xac, 0x6b, 0x49, 0x3d,
  0xaa, 0x34, 0x01, 0xbe, 0x0f, 0x48, 0x05, 0xbe, 0xfa, 0xf8, 0x07, 0x3e,
  0x94, 0x72, 0x68, 0x3d, 0xa7, 0xa6, 0x28, 0xba, 0x49, 0xc1, 0xe2, 0x3d,
  0x5d, 0x2b, 0xd2, 0xbc, 0x06, 0x1d, 0x75, 0x3d, 0x48, 0x92, 0x34, 0xbc,
  0xbd, 0xb0, 0xf5, 0xbd, 0x13, 0x84, 0xe4, 0x3d, 0xb9, 0x02, 0x38, 0x3c,
  0xb4, 0x8d, 0xc1, 0x3d, 0xac, 0x3f, 0xa4, 0x3d, 0x5f, 0x0a, 0xd9, 0x3d,
  0xc4, 0xda, 0x34, 0x3d, 0x3c, 0x21, 0x12, 0x3d, 0xb8, 0xb1, 0x84, 0xbd,
  0x0a, 0x3d, 0x7c, 0xbd, 0x4d, 0x7b, 0x54, 0x3d, 0xd1, 0xe4, 0xc4, 0xbc,
  0x97, 0x02, 0x08, 0xbd, 0xcc, 0x8e, 0x83, 0xbc, 0xc6, 0x46, 0xd8, 0xbd,
  0xb9, 0x58, 0x08, 0xbe, 0x34, 0x1b, 0x2c, 0x3d, 0xd1, 0x4b, 0x05, 0xbe,
  0x08, 0x56, 0x64, 0x3d, 0xf6, 0xd2, 0x45, 0xbe, 0xdd, 0x72, 0xa9, 0xbd,
  0x80, 0xb4, 0x3a, 0xbd, 0xd0, 0xe1, 0xe1, 0xbd, 0x40, 0x8e, 0xd5, 0x3c,
  0x02, 0xa9, 0x2a, 0xbe, 0x1a, 0x56, 0x04, 0xbd, 0x8e, 0x50, 0x29, 0xbd,
  0xb6, 0x0e, 0x46, 0xbe, 0x26, 0x65, 0x90, 0x3d, 0x1b, 0x16, 0x0e, 0x3d,
  0x0f, 0xba, 0xc2, 0xbd, 0xe7, 0xf8, 0x4e, 0xbe, 0xe3, 0x06, 0x47, 0xbd,
  0xea, 0xc6, 0x82, 0xbd, 0x42, 0x14, 0x8e, 0x3d, 0xca, 0x1f, 0x8f, 0xbd,
  0x40, 0x56, 0xc9, 0x3d, 0xa7, 0xae, 0xd4, 0x3d, 0xf5, 0x3b, 0xe9, 0x3c,
  0xc6, 0xf6, 0x7e, 0xbc, 0x60, 0xbb, 0x94, 0xbd, 0x1d, 0x1d, 0x3f, 0xbd,
  0x62, 0xea, 0x54, 0xbd, 0x70, 0x88, 0x45, 0x3e, 0x00, 0x97, 0x9e, 0xbd,
  0x5a, 0xa2, 0xcd, 0x3d, 0x7d, 0x05, 0xfa, 0x3d, 0x97, 0x47, 0xde, 0x3c,
  0x5f, 0xbd, 0xdf, 0xbc, 0x71, 0xd8, 0x1b, 0x3e, 0x49, 0x27, 0x34, 0x3e,
  0x00, 0xc4, 0x84, 0x3d, 0x26, 0x09, 0x20, 0x3e, 0xa7, 0x6d, 0x0c, 0x3e,
  0xb4, 0x43, 0x70, 0x3d, 0x94, 0x84, 0xe4, 0x3d, 0xbb, 0x69, 0x25, 0x3e,
  0x44, 0x14, 0xd0, 0x3d, 0x62, 0xf0, 0x0c, 0xbd, 0x84, 0x8a, 0x0e, 0x3e,
  0x93, 0xfb, 0x20, 0x3e, 0x21, 0x96, 0x25, 0x3e, 0x01, 0x5e, 0x86, 0x3d,
  0xfe, 0x20, 0x68, 0x3c, 0x93, 0x0f, 0x04, 0x3d, 0x47, 0xcd, 0x1a, 0x3e,
  0x65, 0x4f, 0x5c, 0xbd, 0x11, 0x84, 0x22, 0x3e, 0xd6, 0x0b, 0x2f, 0xbc,
  0x21, 0xbf, 0x86, 0xbd, 0xd8, 0x3a, 0x9b, 0x3c, 0xe8, 0xfa, 0xf9, 0x3d,
  0x68, 0x73, 0x48, 0xbd, 0xf2, 0xd0, 0x8e, 0xbd, 0x8f, 0x7b, 0x1b, 0xbe,
  0x73, 0x7b, 0x94, 0x3d, 0x56, 0x48, 0x31, 0x3d, 0x01, 0x69, 0x6f, 0xbc,
  0xcd, 0x1e, 0x53, 0xbe, 0x12, 0x9c, 0x2c, 0xbe, 0xab, 0x02, 0x24, 0xbe,
  0xe7, 0xfd, 0x11, 0xbd, 0x6a, 0x15, 0x5f, 0x3d, 0x42, 0x88, 0x83, 0x3c,
  0xb6, 0x7b, 0xdf, 0xbb, 0x2a, 0x3a, 0x22, 0xbe, 0x1e, 0xab, 0x4a, 0x3d,
  0x28, 0x40, 0x12, 0xbe, 0x18, 0x97, 0x6c, 0xbd, 0x1e, 0x6f, 0x3f, 0xbe,
  0xff, 0x2d, 0x25, 0xbe, 0xcc, 0xcc, 0x95, 0xbd, 0xc8, 0x24, 0x8e, 0xbd,
  0x8a, 0x34, 0xb3, 0x3c, 0x94, 0xb0, 0xe7, 0xbd, 0x4c, 0xcd, 0x07, 0xbe,
  0xcf, 0xf5, 0x2f, 0xbd, 0xfb, 0x1e, 0xf3, 0xbd, 0xba, 0x92, 0x02, 0xbe,
  0xcc, 0xc0, 0xae, 0x3d, 0xac, 0x66, 0x66, 0xbd, 0x41, 0xb2, 0x01, 0x3b,
  0x6d, 0x6e, 0xb8, 0xbd, 0xf6, 0x21, 0xe0, 0x3c, 0x69, 0x0c, 0x0a, 0x3e,
  0x50, 0x26, 0xab, 0x3d, 0x67, 0x8e, 0x96, 0xbd, 0xee, 0x25, 0xdb, 0xbd,
  0x7f, 0x65, 0xb3, 0x3d, 0xe2, 0xae, 0xa1, 0x3d, 0x54, 0x78, 0x9a, 0xbd,
  0xf2, 0xe3, 0x1d, 0xbe, 0x88, 0x7a, 0x7a, 0x3d, 0xbb, 0x63, 0x0c, 0x3e,
  0x1c, 0x81, 0x80, 0x3d, 0x08, 0x3d, 0xf7, 0xbd, 0x3f, 0xe4, 0x7f, 0xbb,
  0x9b, 0x70, 0x3b, 0xbd, 0xf8, 0x8d, 0xc9, 0x3d, 0xde, 0x2c, 0x88, 0x3c,
  0x27, 0x0c, 0x87, 0xbd, 0xd2, 0xde, 0x28, 0x3d, 0x67, 0x2f, 0x04, 0x3d,
  0x13, 0xd0, 0xa2, 0xbd, 0xbc, 0xb3, 0x1a, 0xbd, 0x72, 0x8f, 0x2a, 0x3e,
  0xa7, 0x58, 0xdb, 0x3d, 0xa7, 0x1c, 0xc3, 0xbd, 0xd6, 0xc4, 0x20, 0x3e,
  0xb3, 0x0c, 0xa0, 0x3d, 0x73, 0xae, 0x88, 0x3d, 0x98, 0xe7, 0xf1, 0xbd,
  0x8c, 0x16, 0xaa, 0x3d, 0x35, 0x99, 0xce, 0xbc, 0x05, 0xdf, 0x80, 0x3c,
  0x25, 0x88, 0xc9, 0x3d, 0xa9, 0xf5, 0x0a, 0xbe, 0xe5, 0x39, 0x00, 0x3e,
  0x39, 0xdb, 0xac, 0x3d, 0x97, 0xa8, 0x10, 0xbe, 0x67, 0x3f, 0x08, 0x3e,
  0xe9, 0x6a, 0x01, 0x3d, 0xc7, 0x00, 0x84, 0xbd, 0x14, 0x97, 0xb9, 0x3d,
  0x31, 0x4b, 0xa7, 0x3d, 0xdf, 0xfe, 0x8e, 0x3d, 0xf8, 0xbe, 0xe7, 0xbd,
  0xac, 0xe8, 0x80, 0xbd, 0xea, 0xf6, 0x0d, 0x3d, 0xb0, 0xe5, 0x10, 0x3e,
  0xaf, 0x1e, 0x9a, 0xbd, 0x99, 0x07, 0x00, 0xbe, 0x07, 0x4d, 0xc2, 0x3d,
  0xf0, 0x75, 0xb6, 0x3c, 0x77, 0xae, 0xce, 0x3c, 0x98, 0xe4, 0x10, 0x3e,
  0x8f, 0x99, 0x11, 0x3b, 0x19, 0x60, 0x26, 0x39, 0xb9, 0x4e, 0x89, 0xbd,
  0xb3, 0xdd, 0xec, 0xbd, 0xaf, 0xff, 0xef, 0xbd, 0x26, 0x88, 0xd1, 0xbc,
  0xb2, 0x74, 0xf3, 0x3d, 0xc2, 0x87, 0xe2, 0x3d, 0xf4, 0x5c, 0x14, 0x3e,
  0x6b, 0x8e, 0xda, 0x3d, 0xbe, 0x64, 0x05, 0x3e, 0x3a, 0xac, 0xab, 0xbd,
  0xc3, 0x6e, 0x3a, 0xbd, 0x97, 0x7b, 0x15, 0xbd, 0x1b, 0x38, 0xc8, 0x3d,
  0x95, 0x2a, 0x64, 0x3d, 0x5b, 0x3a, 0xfa, 0xbd, 0x71, 0x7e, 0x0d, 0xbe,
  0xaa, 0xe0, 0x96, 0xbd, 0x18, 0xdd, 0xd9, 0x3d, 0x40, 0x58, 0x04, 0x3e,
  0xb8, 0x5d, 0xf4, 0x3b, 0x6c, 0x61, 0x0b, 0xbe, 0xd5, 0xf8, 0xae, 0xbd,
  0x08, 0x5b, 0xcc, 0x3d, 0xb8, 0x61, 0xef, 0xbc, 0x49, 0x1a, 0x02, 0xbe,
  0x8b, 0x54, 0x1c, 0x3d, 0xeb, 0xd9, 0x58, 0x3d, 0xab, 0x31, 0x87, 0x3c,
  0x1d, 0x49, 0xda, 0xbd, 0xdf, 0x99, 0xe7, 0xbd, 0x37, 0xf2, 0x28, 0x3d,
  0x7c, 0x48, 0xbb, 0x3c, 0x0a, 0xdb, 0x53, 0x3d, 0x42, 0xe3, 0x0c, 0x3e,
  0x1c, 0x10, 0x95, 0xbd, 0xb5, 0xe6, 0x59, 0x3d, 0x3b, 0xc1, 0x9c, 0x3d,
  0x18, 0x0c, 0xab, 0xbd, 0xef, 0x2a, 0xf6, 0x3d, 0x1b, 0x36, 0x0e, 0xbe,
  0x59, 0x66, 0xf9, 0x3c, 0x8a, 0xb1, 0xab, 0xbc, 0xad, 0xaa, 0xe8, 0x3d,
  0x95, 0x28, 0xeb, 0x3d, 0xae, 0xc9, 0xf7, 0x3d, 0x3d, 0x62, 0xfa, 0xbd,
  0xb0, 0xd0, 0x17, 0x3d, 0xce, 0x65, 0x0f, 0x3c, 0x38, 0x87, 0x36, 0xbe,
  0x93, 0x64, 0x1d, 0xbe, 0xc2, 0xe5, 0x84, 0x3d, 0x90, 0xd1, 0xc2, 0x3d,
  0xc3, 0x43, 0x47, 0xbd, 0x39, 0x3c, 0x1d, 0xbd, 0x11, 0xee, 0x86, 0xbd,
  0x0f, 0xaa, 0xe7, 0x3d, 0x88, 0xfa, 0x4b, 0x3d, 0xd8, 0x83, 0x33, 0x3d,
  0x38, 0x38, 0x31, 0x3d, 0x6a, 0xb7, 0x13, 0x3b, 0xf6, 0xd5, 0xbc, 0xbd,
  0x5c, 0x5f, 0x15, 0xbd, 0x6a, 0xce, 0x80, 0xbd, 0xbf, 0xe0, 0x1d, 0xbd,
  0x5e, 0x9c, 0x48, 0xbd, 0xfd, 0x3c, 0xa4, 0xbd, 0xf7, 0x82, 0x10, 0x3e,
  0x4d, 0x76, 0x0f, 0x3e, 0x34, 0x6d, 0x72, 0xbc, 0x45, 0xca, 0x02, 0xbd,
  0xa3, 0x3f, 0xd6, 0xbd, 0x5b, 0x98, 0x80, 0x3d, 0x16, 0xae, 0x71, 0xbd,
  0xfa, 0xab, 0x8f, 0xbd, 0xc2, 0x9f, 0x6c, 0xbd, 0xd8, 0x5d, 0xcd, 0x3d,
  0x53, 0x4d, 0x45, 0x3d, 0x9c, 0xee, 0x10, 0x3e, 0xfb, 0x0e, 0x87, 0xbd,
  0xce, 0x0d, 0xcd, 0xbc, 0xd4, 0xdf, 0x40, 0x3c, 0x57, 0xd5, 0xfa, 0xbc,
  0x5a, 0x05, 0x8e, 0xbd, 0x5e, 0xe0, 0xa6, 0x3d, 0xde, 0x5e, 0xd6, 0xbd,
  0x3a, 0x01, 0xf0, 0xbd, 0x30, 0x22, 0xcc, 0xbb, 0x6f, 0xfa, 0xe6, 0x3c,
  0x01, 0xfa, 0x46, 0xbd, 0xa6, 0xcb, 0xfb, 0xbd, 0x62, 0xdd, 0xb6, 0x3d,
  0x3c, 0x35, 0x1d, 0x3d, 0xb9, 0x32, 0xa0, 0x3d, 0x36, 0xc9, 0xbd, 0x3d,
  0xee, 0xe4, 0x18, 0x3e, 0xfc, 0x1b, 0xa3, 0x3d, 0x53, 0x44, 0x5c, 0xbd,
  0x64, 0x3c, 0xfd, 0xbd, 0x23, 0x4d, 0xc4, 0x3c, 0x48, 0x5a, 0xc9, 0x3d,
  0xcc, 0xc7, 0x84, 0x3d, 0xb6, 0x4a, 0x9a, 0xbd, 0x12, 0xd2, 0x11, 0x3e,
  0x66, 0xa1, 0xee, 0x3d, 0x90, 0xf7, 0x7a, 0x3d, 0xd1, 0x4f, 0x0a, 0xbb,
  0x0a, 0x70, 0x52, 0xbd, 0x55, 0x03, 0xd6, 0x3c, 0x9c, 0x55, 0xf2, 0xbd,
  0xbc, 0x1b, 0x0b, 0x3e, 0x17, 0x85, 0x1d, 0xbe, 0x15, 0x35, 0x8d, 0x3d,
  0xf9, 0x00, 0x59, 0x3d, 0xcc, 0x23, 0xc4, 0x3d, 0x6f, 0x02, 0x4e, 0x3d,
  0xd1, 0xf8, 0x67, 0xbd, 0xb5, 0x37, 0x02, 0x3e, 0x5d, 0x72, 0xdd, 0xbd,
  0xba, 0x70, 0x8f, 0xbd, 0x5e, 0x26, 0x14, 0xbd, 0x49, 0x55, 0x58, 0xbc,
  0x9b, 0x82, 0x80, 0x3d, 0x11, 0x34, 0x42, 0xba, 0x32, 0xfc, 0x08, 0x3e,
  0xeb, 0xfc, 0x04, 0x3e, 0x26, 0x46, 0x49, 0xbd, 0xcb, 0xff, 0x2d, 0x3d,
  0x33, 0x39, 0xfe, 0xbd, 0x3f, 0xe3, 0xea, 0xbd, 0x9a, 0x97, 0x14, 0x3d,
  0x03, 0xf1, 0x0a, 0xbd, 0x7a, 0x0e, 0x9f, 0xbc, 0x5b, 0xd5, 0x1d, 0xbd,
  0xb6, 0x2b, 0x94, 0xbd, 0xc5, 0x7a, 0x35, 0xbc, 0xff, 0xb7, 0xd1, 0x3d,
  0xf4, 0x88, 0xaf, 0x3c, 0x65, 0x40, 0xd8, 0xbd, 0x0a, 0x8c, 0xc4, 0xbd,
  0xcc, 0x57, 0x4a, 0x3d, 0x4a, 0xb3, 0xd8, 0x3d, 0x5f, 0x00, 0xef, 0x3c,
  0xa6, 0xe7, 0x16, 0x3e, 0x71, 0xd5, 0x38, 0x3e, 0x7d, 0xff, 0xb8, 0x3d,
  0xbd, 0xaa, 0xe4, 0x3a, 0xe1, 0xfe, 0x09, 0x3e, 0x66, 0x8b, 0x78, 0xb9,
  0x66, 0x71, 0xdd, 0xbc, 0xe7, 0x65, 0x16, 0x3e, 0x84, 0x2e, 0x1b, 0x3e,
  0xb1, 0xfb, 0x85, 0x3c, 0x09, 0x1a, 0x4a, 0x3d, 0x64, 0xf3, 0x20, 0x3e,
  0xd8, 0x99, 0xa0, 0x3d, 0xa6, 0xa1, 0x0f, 0x3e, 0xfd, 0xd5, 0xf6, 0xbd,
  0x5e, 0xc1, 0x8a, 0xbd, 0x5e, 0xd4, 0xc2, 0xbd, 0xff, 0xf9, 0xb3, 0xbd,
  0x1b, 0x7c, 0x05, 0x3e, 0x48, 0x3d, 0x2d, 0xbe, 0xc7, 0xec, 0x67, 0xbd,
  0x5d, 0xce, 0x34, 0xbe, 0xfc, 0xab, 0x24, 0xbe, 0x2a, 0xcd, 0x5e, 0xbe,
  0x18, 0xef, 0x49, 0xbc, 0x38, 0xc2, 0x25, 0xbe, 0x9d, 0x5f, 0x05, 0xbe,
  0xe8, 0x73, 0x55, 0xbd, 0x0f, 0x9f, 0xca, 0xbd, 0x28, 0x92, 0x8c, 0xbd,
  0xed, 0xa6, 0x89, 0xbd, 0x21, 0xc8, 0x7b, 0xbe, 0x03, 0xe4, 0x10, 0xbe,
  0x70, 0x39, 0xab, 0xbd, 0x45, 0xda, 0x00, 0xbe, 0x0f, 0x48, 0x00, 0x3d,
  0x2b, 0x46, 0xae, 0xbd, 0xab, 0x9c, 0x58, 0xbe, 0x4e, 0x7c, 0xe5, 0x3c,
  0xa0, 0x8f, 0x46, 0xbe, 0xee, 0x50, 0x4c, 0xbe, 0xcf, 0xd7, 0x1b, 0xbc,
  0x6b, 0x47, 0x2e, 0xbe, 0xba, 0x3d, 0xac, 0xbd, 0x10, 0x99, 0xec, 0xbd,
  0x86, 0xb8, 0x13, 0xbd, 0x7c, 0xe4, 0xc9, 0xbd, 0x89, 0xba, 0x2f, 0x3d,
  0x82, 0x44, 0x8f, 0xbd, 0xe4, 0xde, 0xe3, 0xbd, 0x9c, 0x85, 0x78, 0x3c,
  0xc9, 0xf1, 0xbc, 0xbb, 0xf3, 0x7f, 0xc2, 0xbd, 0x62, 0xcd, 0x0d, 0x3e,
  0x85, 0xff, 0x35, 0x3d, 0x37, 0xcc, 0xdc, 0x3d, 0x93, 0x3b, 0x99, 0x3d,
  0x6b, 0xf3, 0x1b, 0x3d, 0x62, 0x57, 0x58, 0x3c, 0x9d, 0xe2, 0xa4, 0x3d,
  0x47, 0x90, 0xc7, 0xbd, 0xcb, 0xfa, 0x20, 0x3e, 0x99, 0x48, 0x14, 0x3e,
  0x84, 0x8c, 0x2a, 0x3e, 0xa5, 0x59, 0x8d, 0x3d, 0xc9, 0x0e, 0x2a, 0x3e,
  0xb3, 0xe8, 0x1c, 0x3e, 0xee, 0x4b, 0x5d, 0xbd, 0xc2, 0xe6, 0xb7, 0x3d,
  0x38, 0xc7, 0xde, 0x3d, 0x9e, 0x61, 0xee, 0x3d, 0x7d, 0x18, 0x86, 0xbc,
  0x99, 0xf8, 0xc0, 0x3d, 0xb1, 0xc0, 0xb4, 0x3c, 0x34, 0x66, 0xaa, 0xbd,
  0x83, 0xe9, 0xf3, 0x3d, 0x81, 0xb7, 0xcf, 0xbd, 0xd1, 0x7a, 0x82, 0xba,
  0x87, 0xac, 0xa9, 0xbd, 0xd3, 0x38, 0x26, 0x3d, 0xf4, 0x81, 0x40, 0xbd,
  0xc8, 0xdf, 0x74, 0x3d, 0x0d, 0xf8, 0x88, 0xbd, 0x73, 0x64, 0xa7, 0x3d,
  0xf0, 0x38, 0x48, 0xbd, 0x0e, 0x00, 0xe8, 0xbc, 0x10, 0x23, 0x91, 0xbd,
  0xd4, 0xa3, 0x9e, 0xbd, 0x55, 0xaf, 0x4d, 0xbd, 0x78, 0xef, 0xbf, 0xbc,
  0x1f, 0x68, 0xdd, 0x3d, 0xc5, 0x6e, 0x8c, 0xbd, 0x6e, 0x90, 0xd7, 0xbc,
  0x34, 0x9e, 0xc2, 0xbd, 0xa7, 0x68, 0xe9, 0x3d, 0x2c, 0xab, 0x04, 0x3d,
  0x78, 0xba, 0xa3, 0x3d, 0x51, 0xcf, 0x63, 0x3d, 0x34, 0x3b, 0xd6, 0xbd,
  0x47, 0xcd, 0x09, 0xbd, 0x5e, 0x89, 0xda, 0xbd, 0xe1, 0xf2, 0x49, 0xbd,
  0xc8, 0xca, 0x41, 0xbc, 0x73, 0x00, 0x02, 0xbe, 0xff, 0x18, 0x38, 0xbd,
  0x6a, 0x1a, 0x1d, 0x3d, 0x58, 0xb7, 0x88, 0x3d, 0xa0, 0x45, 0xbd, 0x3d,
  0xe9, 0x89, 0xc0, 0x3d, 0xb7, 0xc7, 0xb6, 0xbd, 0xb5, 0x55, 0x90, 0x3c,
  0x5d, 0x1f, 0xc1, 0xbd, 0x7f, 0x3c, 0x0d, 0x3e, 0x01, 0x06, 0xe6, 0xbd,
  0x49, 0x86, 0x71, 0xbd, 0x71, 0x39, 0xe9, 0xbd, 0x51, 0xbc, 0xec, 0x3c,
  0x33, 0xf6, 0x69, 0xbd, 0xfd, 0x24, 0x6c, 0xbd, 0xe6, 0xf8, 0xf5, 0x3c,
  0x23, 0x5d, 0x98, 0x3d, 0x5b, 0x08, 0xdd, 0x3d, 0xc1, 0x83, 0xb9, 0x3d,
  0x38, 0xac, 0xbd, 0xbd, 0x5f, 0x99, 0x83, 0x3d, 0x8b, 0x94, 0x73, 0x3d,
  0x4c, 0x1e, 0x0d, 0x3e, 0xa6, 0xd1, 0x1b, 0xbe, 0x9b, 0x3a, 0x12, 0x3e,
  0xd5, 0x02, 0xe9, 0xbd, 0xd6, 0x83, 0xca, 0xbd, 0xf2, 0x95, 0xba, 0xbd,
  0x78, 0x96, 0x89, 0x3d, 0x45, 0xbd, 0xaf, 0xbc, 0x32, 0xec, 0x85, 0x3d,
  0x30, 0x9c, 0xc4, 0x3d, 0x4c, 0x35, 0xdb, 0xbb, 0x38, 0xf3, 0x77, 0xbd,
  0xde, 0xec, 0x99, 0xbd, 0x2f, 0x2c, 0x42, 0xbd, 0x35, 0x2e, 0xc9, 0xbd,
  0xb3, 0x4f, 0xec, 0x3d, 0xbe, 0x9a, 0xf6, 0x3c, 0xd1, 0x5e, 0xc3, 0x3d,
  0x7b, 0x9a, 0x7c, 0x3d, 0xa8, 0x08, 0xb5, 0xbd, 0xae, 0x60, 0x09, 0x3e,
  0x35, 0xdb, 0x1d, 0xbd, 0xbd, 0xcf, 0x29, 0xbd, 0x4e, 0x13, 0x0e, 0xbe,
  0x80, 0xa8, 0x6c, 0xbd, 0x19, 0x37, 0xc2, 0xbd, 0xbd, 0x5a, 0x11, 0x3d,
  0x6d, 0xe6, 0xd5, 0x3d, 0x1c, 0x69, 0x56, 0xbd, 0xc5, 0x1f, 0xff, 0x3d,
  0x44, 0x1f, 0xf6, 0x3d, 0xe2, 0x62, 0x69, 0x3d, 0x20, 0xb9, 0xe4, 0x3d,
  0xcf, 0xae, 0x5f, 0xbc, 0xa8, 0x49, 0xfc, 0x3c, 0xb0, 0x45, 0x45, 0xbc,
  0xec, 0xd1, 0xdb, 0x3c, 0x49, 0x24, 0xee, 0xbd, 0x0b, 0xac, 0xd9, 0x3c,
  0x5b, 0x88, 0xa8, 0xbd, 0xd9, 0x12, 0x02, 0xbe, 0x74, 0xab, 0x00, 0xbd,
  0x4b, 0xa1, 0xc2, 0xbd, 0x5b, 0x0e, 0x86, 0xbd, 0x0d, 0xa3, 0x83, 0x3d,
  0x05, 0x66, 0xf0, 0xbd, 0xc2, 0x6a, 0xea, 0x3d, 0x22, 0xd0, 0x61, 0xbd,
  0x31, 0x72, 0x8d, 0x3d, 0xfa, 0xf2, 0x15, 0x3c, 0x1d, 0xe5, 0x3c, 0xbb,
  0xeb, 0x18, 0x0c, 0xbd, 0x69, 0xd5, 0x40, 0x3d, 0xf6, 0x0d, 0xaf, 0x3d,
  0x4d, 0x7c, 0x25, 0xbc, 0xdc, 0xff, 0x44, 0x3d, 0x12, 0xdf, 0xbf, 0x3d,
  0x63, 0x6d, 0x01, 0x3e, 0xf8, 0xe6, 0xd0, 0xbd, 0x17, 0xf8, 0x05, 0x3d,
  0x5e, 0xd2, 0x60, 0xbc, 0xa1, 0x2b, 0x8b, 0xbd, 0xfa, 0x0a, 0xf1, 0xbd,
  0xc0, 0xbe, 0x0e, 0x3d, 0x47, 0x3f, 0xb6, 0xbc, 0xab, 0x35, 0xd2, 0xbd,
  0x06, 0xde, 0xfa, 0x3d, 0x17, 0x79, 0xca, 0xbd, 0x1f, 0x00, 0x99, 0xbd,
  0xef, 0xb5, 0x28, 0x3e, 0x25, 0xc1, 0xcb, 0x3d, 0xe6, 0xf9, 0xf9, 0x3d,
  0x97, 0xdf, 0x69, 0xbd, 0xab, 0x6a, 0xf6, 0xbd, 0x31, 0xc5, 0x10, 0xbd,
  0x22, 0xd6, 0x4f, 0xbd, 0xac, 0x04, 0x44, 0xbc, 0xf6, 0xba, 0xd9, 0xbd,
  0x8e, 0x6b, 0x41, 0xbd, 0xf3, 0x93, 0x83, 0x3c, 0x48, 0x81, 0x16, 0x3e,
  0x20, 0x76, 0x07, 0x3e, 0x88, 0x74, 0xff, 0x3d, 0xe6, 0x07, 0x3e, 0x39,
  0xa5, 0xaf, 0xe0, 0xbd, 0x93, 0x18, 0x01, 0x3d, 0x20, 0x9c, 0xb5, 0x3d,
  0x30, 0x21, 0x61, 0xbd, 0x49, 0xe2, 0x12, 0x3d, 0x0a, 0x69, 0x18, 0x3d,
  0xf0, 0xaf, 0x79, 0x3c, 0xbd, 0xab, 0x2e, 0xbd, 0x26, 0xe9, 0xb9, 0x3d,
  0x66, 0xf6, 0x11, 0x3d, 0x4f, 0x91, 0xb8, 0x3d, 0xa7, 0x3c, 0xe5, 0x3d,
  0x1b, 0x3d, 0x15, 0xbd, 0xd3, 0x96, 0x10, 0x3c, 0x80, 0x4a, 0x11, 0xbb,
  0x1b, 0x35, 0xf7, 0xbd, 0x0f, 0xe9, 0x57, 0x3d, 0x59, 0x41, 0x0a, 0xbe,
  0xf2, 0x35, 0x25, 0x3e, 0x81, 0x7a, 0x21, 0xbb, 0x43, 0x29, 0xc9, 0xbc,
  0x05, 0x8e, 0xbf, 0xbd, 0x20, 0x85, 0x53, 0x3d, 0xd3, 0xf3, 0xb3, 0xbd,
  0xea, 0x73, 0x3a, 0x3c, 0x4e, 0x90, 0xda, 0x3d, 0xd4, 0x81, 0xe9, 0xbd,
  0xa4, 0x88, 0x1a, 0xbd, 0x4e, 0xb7, 0x14, 0x3d, 0xf8, 0x5f, 0x83, 0x3a,
  0x6f, 0x79, 0x75, 0xbd, 0x10, 0xd6, 0x0a, 0x3d, 0xb0, 0xdb, 0x92, 0xbc,
  0x8f, 0x8b, 0x9f, 0xbc, 0x23, 0xb9, 0x4f, 0xbc, 0xdb, 0x08, 0xe9, 0x3b,
  0xc0, 0x23, 0xc2, 0xbd, 0xde, 0xae, 0x09, 0x3e, 0xaf, 0x8b, 0xbe, 0x3d,
  0x66, 0xf3, 0xef, 0x3d, 0xc8, 0x58, 0xf3, 0xbc, 0xa9, 0xb9, 0xc4, 0x3c,
  0xfc, 0xc1, 0x00, 0x3e, 0xc7, 0xfb, 0xda, 0xbb, 0x47, 0xb4, 0xa4, 0x3c,
  0xe0, 0x60, 0x94, 0x3d, 0xf7, 0xf3, 0x0a, 0x3e, 0xfc, 0x92, 0x93, 0xbd,
  0x6f, 0xa1, 0x03, 0x3d, 0x76, 0x51, 0x8f, 0xbd, 0x87, 0xb9, 0xbe, 0xbd,
  0xcf, 0x20, 0x2f, 0xbd, 0xda, 0xea, 0x8e, 0x3a, 0xb6, 0x3d, 0x30, 0xbe,
  0x7e, 0x72, 0x5d, 0xbd, 0xf6, 0x3a, 0x73, 0x3d, 0x7e, 0x9a, 0xcc, 0xbd,
  0x01, 0xc1, 0x2d, 0xbd, 0xf8, 0x8f, 0x8e, 0xbb, 0x01, 0x6c, 0x32, 0xbe,
  0xe2, 0x63, 0x0b, 0xbe, 0x04, 0x53, 0x6f, 0xbe, 0x74, 0x7b, 0x4a, 0xbe,
  0x0b, 0x42, 0x03, 0x3d, 0x9a, 0xdd, 0xa4, 0xbd, 0x9b, 0x1c, 0x28, 0xbe,
  0x3b, 0x24, 0x26, 0xbe, 0xac, 0x94, 0x4b, 0xbe, 0xc8, 0x07, 0x3d, 0xbe,
  0x44, 0xd9, 0x53, 0xbe, 0x89, 0x0d, 0x37, 0xbe, 0xa3, 0x9a, 0x61, 0xbe,
  0xc9, 0x70, 0x5f, 0x3c, 0xfc, 0x78, 0x20, 0xbe, 0x85, 0xdd, 0x61, 0xbe,
  0x63, 0x30, 0x17, 0xbb, 0x7f, 0x60, 0x10, 0xbd, 0x07, 0xac, 0x15, 0xbe,
  0x98, 0xbb, 0x1f, 0xbe, 0x39, 0x24, 0x64, 0xbe, 0xfc, 0x5c, 0xc4, 0xbd,
  0xb9, 0xb4, 0x32, 0xbe, 0x15, 0xec, 0x35, 0xbe, 0x99, 0xd5, 0x18, 0xbe,
  0x88, 0x00, 0x1d, 0xbe, 0x4f, 0x6b, 0xb7, 0x3d, 0x11, 0x5d, 0xe6, 0xbd,
  0x0b, 0xc0, 0xa1, 0xbd, 0xf3, 0x05, 0x0c, 0x3e, 0x5c, 0x1b, 0x09, 0x3e,
  0xdd, 0xad, 0x96, 0x3c, 0x5c, 0x2f, 0xd1, 0xbd, 0x8f, 0xe8, 0x1b, 0xbd,
  0x2e, 0x4e, 0x39, 0xbc, 0xf0, 0x9a, 0x19, 0x3e, 0x9b, 0x49, 0x63, 0x3e,
  0xf1, 0xe0, 0xa6, 0x3d, 0x9e, 0x53, 0xab, 0x3d, 0x64, 0x3e, 0x02, 0x3e,
  0x50, 0x28, 0x47, 0x3e, 0xc5, 0x17, 0x58, 0x3e, 0x18, 0x9a, 0x39, 0x3e,
  0xf5, 0x48, 0x21, 0x3e, 0x9f, 0x9e, 0x87, 0x3d, 0x80, 0xae, 0x3a, 0xbd,
  0xdf, 0xf3, 0xc1, 0x3c, 0x65, 0x2a, 0xb8, 0x3d, 0xc2, 0x01, 0x8e, 0xbb,
  0x72, 0xe1, 0x4e, 0x3e, 0xe9, 0xd0, 0x5d, 0x3d, 0xc2, 0x23, 0x27, 0x3e,
  0x9b, 0x07, 0x8c, 0xbd, 0x93, 0x3b, 0x8c, 0xbc, 0x97, 0x13, 0x0b, 0xbe,
  0x4c, 0x84, 0x06, 0xbe, 0x79, 0xaf, 0xa3, 0x3d, 0xdc, 0x49, 0x1d, 0xba,
  0x3e, 0xf8, 0x21, 0xbe, 0x15, 0x4e, 0x32, 0xbe, 0xcb, 0xc4, 0x66, 0xbb,
  0x99, 0xf9, 0xdf, 0xba, 0xb2, 0x54, 0xfc, 0xbd, 0x99, 0x14, 0xb7, 0xbd,
  0x16, 0x63, 0xfd, 0x3d, 0x87, 0x17, 0xe7, 0xbd, 0x48, 0x3a, 0xb7, 0xbd,
  0x29, 0x37, 0x0b, 0x3e, 0x48, 0xc5, 0xe1, 0x3d, 0x41, 0xd9, 0x4c, 0xbd,
  0xa4, 0x8d, 0x0e, 0x3d, 0xfe, 0x90, 0x00, 0xbe, 0xee, 0xbb, 0x34, 0xbc,
  0x5f, 0xa5, 0x0a, 0xbe, 0x7f, 0xd3, 0x11, 0xbd, 0x5e, 0x91, 0xd3, 0xbc,
  0x8c, 0x4f, 0x26, 0x3d, 0xe1, 0x25, 0x25, 0xbd, 0x0e, 0x25, 0xa8, 0x3b,
  0xcf, 0xf0, 0xa7, 0xbd, 0xff, 0x4a, 0x08, 0xbe, 0xbe, 0x8a, 0x25, 0x3e,
  0x52, 0xe1, 0x15, 0xbd, 0x2c, 0x3f, 0x64, 0xbd, 0x8d, 0x90, 0x7b, 0x3d,
  0x05, 0x51, 0xa6, 0xbd, 0x7c, 0x75, 0xdd, 0x3d, 0xa5, 0x10, 0x38, 0xbd,
  0x36, 0x1b, 0x64, 0x3c, 0xf7, 0x27, 0x75, 0x3b, 0x05, 0x6b, 0x24, 0xbd,
  0xd5, 0x01, 0xf1, 0xbc, 0xa2, 0x94, 0xfe, 0x3d, 0xe3, 0xd8, 0x03, 0x3b,
  0x81, 0xd8, 0x80, 0xbc, 0xad, 0x27, 0x93, 0x3d, 0xbf, 0x53, 0x1e, 0x3e,
  0x3a, 0x00, 0xdf, 0xbd, 0x51, 0xe2, 0xf6, 0xbc, 0x66, 0x58, 0x7c, 0xbc,
  0xc6, 0x72, 0xfa, 0x3d, 0xcb, 0x1b, 0xcb, 0xbd, 0x7e, 0x74, 0x16, 0x3e,
  0x0b, 0xc8, 0x18, 0x3d, 0xf2, 0x33, 0x10, 0xbe, 0xfa, 0xcb, 0x31, 0x3d,
  0xe0, 0xbe, 0x89, 0x3d, 0xd1, 0x34, 0x1f, 0x3d, 0xaf, 0xcf, 0x08, 0xbe,
  0xd2, 0x18, 0x91, 0xbd, 0x77, 0x9e, 0x0d, 0x3e, 0x10, 0x4f, 0x90, 0xbc,
  0xb6, 0xa0, 0x90, 0xbd, 0x01, 0x12, 0xd8, 0x3d, 0x98, 0x0d, 0x66, 0x3d,
  0x0d, 0x7a, 0xd5, 0xbc, 0xef, 0xab, 0x69, 0x3d, 0x58, 0xc5, 0x16, 0x3d,
  0x0b, 0x4f, 0xe6, 0x3d, 0xa7, 0xee, 0x2b, 0xbe, 0x9c, 0xa7, 0x9d, 0xbc,
  0x42, 0x08, 0x4d, 0x3d, 0x5f, 0x37, 0x45, 0x3d, 0xa1, 0x4e, 0x9c, 0x3d,
  0x2a, 0x19, 0x64, 0xbd, 0x28, 0xc0, 0xc3, 0xbd, 0x70, 0x5d, 0x96, 0x3d,
  0x31, 0xc8, 0xb9, 0x3b, 0x27, 0x95, 0x02, 0x3e, 0x07, 0xaf, 0x05, 0xbe,
  0x2a, 0x23, 0x29, 0x3e, 0xab, 0xfe, 0xfe, 0x3b, 0x82, 0xaf, 0xc7, 0xbd,
  0xb7, 0xd9, 0x2e, 0x3d, 0x6b, 0x05, 0x04, 0xbd, 0xcd, 0xee, 0x22, 0xbc,
  0xb6, 0x31, 0xf9, 0x3d, 0xe3, 0x6e, 0x7a, 0x3d, 0x51, 0xe7, 0xc1, 0x3c,
  0x5e, 0xf2, 0x91, 0x3d, 0x57, 0x3f, 0xfb, 0xbd, 0x93, 0x80, 0x22, 0x3e,
  0xb4, 0x82, 0xed, 0xbc, 0x55, 0xa0, 0x1c, 0xbd, 0xaf, 0x80, 0x42, 0xbd,
  0x2d, 0x51, 0x5b, 0xbd, 0xea, 0x9c, 0x03, 0xbe, 0xce, 0x65, 0xa8, 0xbd,
  0xa3, 0xa0, 0x2d, 0x3e, 0x03, 0x7c, 0x2e, 0x3e, 0xb0, 0x82, 0x94, 0xbd,
  0xb6, 0x98, 0x97, 0x3d, 0x82, 0xe3, 0x8e, 0x3c, 0x3f, 0x84, 0xec, 0xbd,
  0xfc, 0x79, 0x0a, 0xbe, 0x3c, 0xe5, 0xf1, 0x3c, 0x1e, 0xff, 0xff, 0xff,
  0x10, 0x00, 0x00, 0x00, 0x04, 0x00, 0x00, 0x00, 0x14, 0x00, 0x00, 0x00,
  0x2c, 0x00, 0x00, 0x00, 0x02, 0x00, 0x00, 0x00, 0x08, 0x00, 0x00, 0x00,
  0x0b, 0x01, 0x00, 0x00, 0x17, 0x00, 0x00, 0x00, 0x73, 0x65, 0x71, 0x75,
  0x65, 0x6e, 0x74, 0x69, 0x61, 0x6c, 0x2f, 0x64, 0x65, 0x6e, 0x73, 0x65,
  0x2f, 0x4d, 0x61, 0x74, 0x4d, 0x75, 0x6c, 0x00, 0xa0, 0xfe, 0xff, 0xff,
  0x76, 0xff, 0xff, 0xff, 0x04, 0x00, 0x00, 0x00, 0x20, 0x00, 0x00, 0x00,
  0x53, 0x38, 0x8e, 0x3c, 0xb4, 0x46, 0x65, 0xbc, 0x33, 0x5f, 0x97, 0xbc,
  0x20, 0x47, 0x35, 0xbc, 0x79, 0x0c, 0x5d, 0xbc, 0x3a, 0x3f, 0x50, 0xbc,
  0x10, 0x8b, 0x5a, 0xba, 0x00, 0x0d, 0x2b, 0xbc, 0x8a, 0xff, 0xff, 0xff,
  0x10, 0x00, 0x00, 0x00, 0x03, 0x00, 0x00, 0x00, 0x10, 0x00, 0x00, 0x00,
  0x48, 0x00, 0x00, 0x00, 0x01, 0x00, 0x00, 0x00, 0x08, 0x00, 0x00, 0x00,
  0x30, 0x00, 0x00, 0x00, 0x73, 0x65, 0x71, 0x75, 0x65, 0x6e, 0x74, 0x69,
  0x61, 0x6c, 0x2f, 0x64, 0x65, 0x6e, 0x73, 0x65, 0x2f, 0x42, 0x69, 0x61,
  0x73, 0x41, 0x64, 0x64, 0x2f, 0x52, 0x65, 0x61, 0x64, 0x56, 0x61, 0x72,
  0x69, 0x61, 0x62, 0x6c, 0x65, 0x4f, 0x70, 0x2f, 0x72, 0x65, 0x73, 0x6f,
  0x75, 0x72, 0x63, 0x65, 0x00, 0x00, 0x00, 0x00, 0x04, 0x00, 0x06, 0x00,
  0x04, 0x00, 0x00, 0x00, 0x00, 0x00, 0x06, 0x00, 0x08, 0x00, 0x04, 0x00,
  0x06, 0x00, 0x00, 0x00, 0x04, 0x00, 0x00, 0x00, 0x04, 0x00, 0x00, 0x00,
  0x48, 0x2e, 0xa7, 0xba, 0x00, 0x00, 0x0e, 0x00, 0x14, 0x00, 0x04, 0x00,
  0x00, 0x00, 0x08, 0x00, 0x0c, 0x00, 0x10, 0x00, 0x0e, 0x00, 0x00, 0x00,
  0x10, 0x00, 0x00, 0x00, 0x02, 0x00, 0x00, 0x00, 0x10, 0x00, 0x00, 0x00,
  0x44, 0x00, 0x00, 0x00, 0x01, 0x00, 0x00, 0x00, 0x01, 0x00, 0x00, 0x00,
  0x32, 0x00, 0x00, 0x00, 0x73, 0x65, 0x71, 0x75, 0x65, 0x6e, 0x74, 0x69,
  0x61, 0x6c, 0x2f, 0x64, 0x65, 0x6e, 0x73, 0x65, 0x5f, 0x31, 0x2f, 0x42,
  0x69, 0x61, 0x73, 0x41, 0x64, 0x64, 0x2f, 0x52, 0x65, 0x61, 0x64, 0x56,
  0x61, 0x72, 0x69, 0x61, 0x62, 0x6c, 0x65, 0x4f, 0x70, 0x2f, 0x72, 0x65,
  0x73, 0x6f, 0x75, 0x72, 0x63, 0x65, 0x00, 0x00, 0xa8, 0xff, 0xff, 0xff,
  0x14, 0x00, 0x18, 0x00, 0x04, 0x00, 0x00, 0x00, 0x08, 0x00, 0x0c, 0x00,
  0x10, 0x00, 0x00, 0x00, 0x00, 0x00, 0x14, 0x00, 0x14, 0x00, 0x00, 0x00,
  0x14, 0x00, 0x00, 0x00, 0x01, 0x00, 0x00, 0x00, 0x24, 0x00, 0x00, 0x00,
  0x2c, 0x00, 0x00, 0x00, 0x10, 0x00, 0x00, 0x00, 0x02, 0x00, 0x00, 0x00,
  0x01, 0x00, 0x00, 0x00, 0x0b, 0x01, 0x00, 0x00, 0x02, 0x00, 0x00, 0x00,
  0xff, 0xff, 0xff, 0xff, 0x0b, 0x01, 0x00, 0x00, 0x07, 0x00, 0x00, 0x00,
  0x69, 0x6e, 0x70, 0x75, 0x74, 0x5f, 0x31, 0x00, 0xfc, 0xff, 0xff, 0xff,
  0x04, 0x00, 0x04, 0x00, 0x04, 0x00, 0x00, 0x00
};

#endif //TFLITEMODEL_H